{
  "version": "1.0",
  "truncation": null,
  "padding": null,
  "added_tokens": [
    {
      "id": 0,
      "content": "[UNK]",
      "single_word": false,
      "lstrip": false,
      "rstrip": false,
      "normalized": false,
      "special": true
    },
    {
      "id": 1,
      "content": "<|begin_of_text|>",
      "single_word": false,
      "lstrip": false,
      "rstrip": false,
      "normalized": false,
      "special": true
    },
    {
      "id": 2,
      "content": "<|end_of_text|>",
      "single_word": false,
      "lstrip": false,
      "rstrip": false,
      "normalized": false,
      "special": true
    },
    {
      "id": 3,
      "content": "[PAD]",
      "single_word": false,
      "lstrip": false,
      "rstrip": false,
      "normalized": false,
      "special": true
    },
    {
      "id": 65520,
      "content": "<|source_id|>",
      "single_word": false,
      "lstrip": false,
      "rstrip": false,
      "normalized": false,
      "special": true
    },
    {
      "id": 65521,
      "content": "<|source_analysis_start|>",
      "single_word": false,
      "lstrip": false,
      "rstrip": false,
      "normalized": false,
      "special": true
    },
    {
      "id": 65522,
      "content": "<|source_analysis_end|>",
      "single_word": false,
      "lstrip": false,
      "rstrip": false,
      "normalized": false,
      "special": true
    },
    {
      "id": 65523,
      "content": "<|source_start|>",
      "single_word": false,
      "lstrip": false,
      "rstrip": false,
      "normalized": false,
      "special": true
    },
    {
      "id": 65524,
      "content": "<|source_end|>",
      "single_word": false,
      "lstrip": false,
      "rstrip": false,
      "normalized": false,
      "special": true
    },
    {
      "id": 65525,
      "content": "<|answer_start|>",
      "single_word": false,
      "lstrip": false,
      "rstrip": false,
      "normalized": false,
      "special": true
    },
    {
      "id": 65526,
      "content": "<|answer_end|>",
      "single_word": false,
      "lstrip": false,
      "rstrip": false,
      "normalized": false,
      "special": true
    },
    {
      "id": 65527,
      "content": "<|query_start|>",
      "single_word": false,
      "lstrip": false,
      "rstrip": false,
      "normalized": false,
      "special": true
    },
    {
      "id": 65528,
      "content": "<|query_end|>",
      "single_word": false,
      "lstrip": false,
      "rstrip": false,
      "normalized": false,
      "special": true
    },
    {
      "id": 65529,
      "content": "<|source_interpretation_start|>",
      "single_word": false,
      "lstrip": false,
      "rstrip": false,
      "normalized": false,
      "special": true
    },
    {
      "id": 65530,
      "content": "<|source_interpretation_end|>",
      "single_word": false,
      "lstrip": false,
      "rstrip": false,
      "normalized": false,
      "special": true
    }
  ],
  "normalizer": null,
  "pre_tokenizer": {
    "type": "Sequence",
    "pretokenizers": [
      {
        "type": "Split",
        "pattern": {
          "String": "[^\\r\\n\\p{L}\\p{N}]?\\p{L}+|\\p{N}{1,3}| ?[^\\s\\p{L}\\p{N}]+[\\r\\n]*|\\s*[\\r\\n]+|\\s+(?!\\S)|\\s+"
        },
        "behavior": "Isolated",
        "invert": false
      },
      {
        "type": "ByteLevel",
        "add_prefix_space": false,
        "trim_offsets": true,
        "use_regex": true
      }
    ]
  },
  "post_processor": {
    "type": "Sequence",
    "processors": [
      {
        "type": "ByteLevel",
        "add_prefix_space": true,
        "trim_offsets": false,
        "use_regex": true
      },
      {
        "type": "TemplateProcessing",
        "single": [
          {
            "SpecialToken": {
              "id": "<|begin_of_text|>",
              "type_id": 0
            }
          },
          {
            "Sequence": {
              "id": "A",
              "type_id": 0
            }
          }
        ],
        "pair": [
          {
            "SpecialToken": {
              "id": "<|begin_of_text|>",
              "type_id": 0
            }
          },
          {
            "Sequence": {
              "id": "A",
              "type_id": 0
            }
          },
          {
            "SpecialToken": {
              "id": "<|begin_of_text|>",
              "type_id": 0
            }
          },
          {
            "Sequence": {
              "id": "B",
              "type_id": 0
            }
          }
        ],
        "special_tokens": {
          "<|begin_of_text|>": {
            "id": "<|begin_of_text|>",
            "ids": [
              1
            ],
            "tokens": [
              "<|begin_of_text|>"
            ]
          },
          "<|end_of_text|>": {
            "id": "<|end_of_text|>",
            "ids": [
              2
            ],
            "tokens": [
              "<|end_of_text|>"
            ]
          },
          "[PAD]": {
            "id": "[PAD]",
            "ids": [
              3
            ],
            "tokens": [
              "[PAD]"
            ]
          },
          "[UNK]": {
            "id": "[UNK]",
            "ids": [
              0
            ],
            "tokens": [
              "[UNK]"
            ]
          }
        }
      }
    ]
  },
  "decoder": {
    "type": "ByteLevel",
    "add_prefix_space": true,
    "trim_offsets": true,
    "use_regex": true
  },
  "model": {
    "type": "BPE",
    "dropout": null,
    "unk_token": "[UNK]",
    "continuing_subword_prefix": null,
    "end_of_word_suffix": null,
    "fuse_unk": false,
    "byte_fallback": false,
    "ignore_merges": true,
    "vocab": {
      "[UNK]": 0,
      "<|begin_of_text|>": 1,
      "<|end_of_text|>": 2,
      "[PAD]": 3,
      "!": 4,
      "\"": 5,
      "#": 6,
      "$": 7,
      "%": 8,
      "&": 9,
      "'": 10,
      "(": 11,
      ")": 12,
      "*": 13,
      "+": 14,
      ",": 15,
      "-": 16,
      ".": 17,
      "/": 18,
      "0": 19,
      "1": 20,
      "2": 21,
      "3": 22,
      "4": 23,
      "5": 24,
      "6": 25,
      "7": 26,
      "8": 27,
      "9": 28,
      ":": 29,
      ";": 30,
      "<": 31,
      "=": 32,
      ">": 33,
      "?": 34,
      "@": 35,
      "A": 36,
      "B": 37,
      "C": 38,
      "D": 39,
      "E": 40,
      "F": 41,
      "G": 42,
      "H": 43,
      "I": 44,
      "J": 45,
      "K": 46,
      "L": 47,
      "M": 48,
      "N": 49,
      "O": 50,
      "P": 51,
      "Q": 52,
      "R": 53,
      "S": 54,
      "T": 55,
      "U": 56,
      "V": 57,
      "W": 58,
      "X": 59,
      "Y": 60,
      "Z": 61,
      "[": 62,
      "\\": 63,
      "]": 64,
      "^": 65,
      "_": 66,
      "`": 67,
      "a": 68,
      "b": 69,
      "c": 70,
      "d": 71,
      "e": 72,
      "f": 73,
      "g": 74,
      "h": 75,
      "i": 76,
      "j": 77,
      "k": 78,
      "l": 79,
      "m": 80,
      "n": 81,
      "o": 82,
      "p": 83,
      "q": 84,
      "r": 85,
      "s": 86,
      "t": 87,
      "u": 88,
      "v": 89,
      "w": 90,
      "x": 91,
      "y": 92,
      "z": 93,
      "{": 94,
      "|": 95,
      "}": 96,
      "~": 97,
      "¡": 98,
      "¢": 99,
      "£": 100,
      "¤": 101,
      "¥": 102,
      "¦": 103,
      "§": 104,
      "¨": 105,
      "©": 106,
      "ª": 107,
      "«": 108,
      "¬": 109,
      "®": 110,
      "¯": 111,
      "°": 112,
      "±": 113,
      "²": 114,
      "³": 115,
      "´": 116,
      "µ": 117,
      "¶": 118,
      "·": 119,
      "¸": 120,
      "¹": 121,
      "º": 122,
      "»": 123,
      "¼": 124,
      "½": 125,
      "¾": 126,
      "¿": 127,
      "Â": 128,
      "Ã": 129,
      "Ä": 130,
      "Å": 131,
      "Æ": 132,
      "Ç": 133,
      "È": 134,
      "É": 135,
      "Ê": 136,
      "Ë": 137,
      "Ì": 138,
      "Í": 139,
      "Î": 140,
      "Ï": 141,
      "Ð": 142,
      "Ñ": 143,
      "Ò": 144,
      "Ó": 145,
      "Ô": 146,
      "Õ": 147,
      "Ö": 148,
      "×": 149,
      "Ø": 150,
      "Ù": 151,
      "Ú": 152,
      "Û": 153,
      "Ü": 154,
      "Ý": 155,
      "Þ": 156,
      "ß": 157,
      "à": 158,
      "á": 159,
      "â": 160,
      "ã": 161,
      "ä": 162,
      "å": 163,
      "æ": 164,
      "ç": 165,
      "è": 166,
      "é": 167,
      "ê": 168,
      "ë": 169,
      "ì": 170,
      "í": 171,
      "î": 172,
      "ï": 173,
      "ð": 174,
      "ñ": 175,
      "ò": 176,
      "ó": 177,
      "ô": 178,
      "Ā": 179,
      "ā": 180,
      "Ă": 181,
      "ă": 182,
      "Ą": 183,
      "ą": 184,
      "Ć": 185,
      "ć": 186,
      "Ĉ": 187,
      "ĉ": 188,
      "Ċ": 189,
      "ċ": 190,
      "Č": 191,
      "č": 192,
      "Ď": 193,
      "ď": 194,
      "Đ": 195,
      "đ": 196,
      "Ē": 197,
      "ē": 198,
      "Ĕ": 199,
      "ĕ": 200,
      "Ė": 201,
      "ė": 202,
      "Ę": 203,
      "ę": 204,
      "Ě": 205,
      "ě": 206,
      "Ĝ": 207,
      "ĝ": 208,
      "Ğ": 209,
      "ğ": 210,
      "Ġ": 211,
      "ġ": 212,
      "Ģ": 213,
      "ģ": 214,
      "Ĥ": 215,
      "ĥ": 216,
      "Ħ": 217,
      "ħ": 218,
      "Ĩ": 219,
      "ĩ": 220,
      "Ī": 221,
      "ī": 222,
      "Ĭ": 223,
      "ĭ": 224,
      "Į": 225,
      "į": 226,
      "İ": 227,
      "ı": 228,
      "Ĳ": 229,
      "ĳ": 230,
      "Ĵ": 231,
      "ĵ": 232,
      "Ķ": 233,
      "ķ": 234,
      "ĸ": 235,
      "Ĺ": 236,
      "ĺ": 237,
      "Ļ": 238,
      "ļ": 239,
      "Ľ": 240,
      "ľ": 241,
      "Ŀ": 242,
      "ŀ": 243,
      "Ł": 244,
      "ł": 245,
      "Ń": 246,
      "ĠĠ": 247,
      "Ġt": 248,
      "Ġa": 249,
      "in": 250,
      "er": 251,
      "en": 252,
      "on": 253,
      "es": 254,
      "Ġd": 255,
      "he": 256,
      "Ġs": 257,
      "ti": 258,
      "re": 259,
      "Ġp": 260,
      "an": 261,
      "Ġc": 262,
      "or": 263,
      "ĠĠĠĠ": 264,
      "Ġthe": 265,
      "is": 266,
      "Ġo": 267,
      "al": 268,
      "at": 269,
      "ar": 270,
      "it": 271,
      "Ġl": 272,
      "Ġf": 273,
      "ed": 274,
      "Ġm": 275,
      "Ġw": 276,
      "Ġb": 277,
      "ro": 278,
      "Ġin": 279,
      "nd": 280,
      "ing": 281,
      "tion": 282,
      "ic": 283,
      "Ġof": 284,
      "el": 285,
      "ent": 286,
      "as": 287,
      "et": 288,
      "ur": 289,
      "Ġn": 290,
      "Ã©": 291,
      "le": 292,
      "Ġand": 293,
      "Ġde": 294,
      "us": 295,
      "Ġto": 296,
      "om": 297,
      "il": 298,
      "Ġe": 299,
      "Ġh": 300,
      "un": 301,
      "ch": 302,
      "Ġ1": 303,
      "Ġv": 304,
      "Ġth": 305,
      "ra": 306,
      "ĠS": 307,
      "id": 308,
      "qu": 309,
      "os": 310,
      "ec": 311,
      "ut": 312,
      "ol": 313,
      "âĢ": 314,
      "Ġre": 315,
      "ĠA": 316,
      "im": 317,
      "ĠC": 318,
      "Ġg": 319,
      "em": 320,
      "ul": 321,
      "Ġ(": 322,
      "ĠT": 323,
      "ation": 324,
      "ĠĠĠ": 325,
      "am": 326,
      "ĠĠĠĠĠĠĠĠ": 327,
      "ig": 328,
      "Ġ\"": 329,
      "ce": 330,
      "st": 331,
      "ĠI": 332,
      "Ġ2": 333,
      "ad": 334,
      "ĠM": 335,
      "Ġr": 336,
      "ĠÐ": 337,
      "Ġcon": 338,
      "ir": 339,
      "ot": 340,
      "ĠP": 341,
      "ie": 342,
      "ac": 343,
      "ter": 344,
      "ve": 345,
      "od": 346,
      "um": 347,
      "ri": 348,
      "Ġfor": 349,
      "ag": 350,
      "Ġis": 351,
      "00": 352,
      "ĠD": 353,
      "ĠB": 354,
      "Ġpro": 355,
      "Ð°": 356,
      "ow": 357,
      "ab": 358,
      "Ġbe": 359,
      "ess": 360,
      "te": 361,
      "ĠE": 362,
      "ĠL": 363,
      "Âł": 364,
      "ly": 365,
      "ers": 366,
      "est": 367,
      "Ġon": 368,
      "Ġan": 369,
      "ion": 370,
      "if": 371,
      "Ġla": 372,
      "Ð¾": 373,
      "Ġen": 374,
      "Ġst": 375,
      "Ġqu": 376,
      "ĠF": 377,
      "ou": 378,
      "Ġal": 379,
      "ĠR": 380,
      "Ġcom": 381,
      "..": 382,
      "th": 383,
      "and": 384,
      "Ġk": 385,
      "ith": 386,
      "Ðµ": 387,
      "ay": 388,
      "Ġas": 389,
      "ant": 390,
      "Ġwh": 391,
      "pp": 392,
      "ate": 393,
      "ver": 394,
      "Ġu": 395,
      "ĠH": 396,
      "ĠÃ": 397,
      "our": 398,
      "ci": 399,
      "Ð¸": 400,
      "Ġle": 401,
      "ere": 402,
      "Ġex": 403,
      "ĠN": 404,
      "ĠG": 405,
      "Ġor": 406,
      "Ġy": 407,
      "Ġthat": 408,
      "ist": 409,
      "Ġsu": 410,
      "Ġwith": 411,
      "Ġun": 412,
      "ich": 413,
      "ĠâĢ": 414,
      "ect": 415,
      "end": 416,
      "ÑĤ": 417,
      "\":": 418,
      "Ġ3": 419,
      "Ġj": 420,
      "ĠW": 421,
      "ud": 422,
      "Ð½": 423,
      "Ġpar": 424,
      "ain": 425,
      "ment": 426,
      "Ġet": 427,
      "op": 428,
      "tic": 429,
      "iv": 430,
      "ct": 431,
      "ĠĠĠĠĠĠĠ": 432,
      "Ġdes": 433,
      "pl": 434,
      "ill": 435,
      "ÑĢ": 436,
      "ans": 437,
      "Ġat": 438,
      "ort": 439,
      "Ġpr": 440,
      "ĠO": 441,
      "ure": 442,
      "oc": 443,
      "Ġse": 444,
      "ell": 445,
      "ap": 446,
      "ĠThe": 447,
      "og": 448,
      "Ġby": 449,
      "Ñģ": 450,
      "âĢĻ": 451,
      "Ġit": 452,
      "se": 453,
      "Ġi": 454,
      "ff": 455,
      "ĠJ": 456,
      "ak": 457,
      "ity": 458,
      "--": 459,
      "ĠÎ": 460,
      "ia": 461,
      "ire": 462,
      "rom": 463,
      "01": 464,
      "Ã¤": 465,
      "Ġhe": 466,
      "ge": 467,
      "ine": 468,
      "ore": 469,
      "Ġ4": 470,
      "Ġ=": 471,
      "Ġ{": 472,
      "Ġz": 473,
      "ĠV": 474,
      "Ġac": 475,
      "Ġch": 476,
      "Ġne": 477,
      "per": 478,
      "pe": 479,
      "ati": 480,
      "ht": 481,
      "Ã¡": 482,
      "ne": 483,
      "\",": 484,
      "ue": 485,
      "iz": 486,
      "ub": 487,
      "Ġare": 488,
      "pr": 489,
      "ous": 490,
      "av": 491,
      "cl": 492,
      "all": 493,
      "Ð¾Ð": 494,
      "Ġ0": 495,
      "ĠK": 496,
      "orm": 497,
      "Ġwas": 498,
      "ens": 499,
      "ement": 500,
      "ber": 501,
      "Ġ5": 502,
      "Ġim": 503,
      "ĠU": 504,
      "Ġpl": 505,
      "Ġ}": 506,
      "de": 507,
      "ÃŃ": 508,
      "ĠĠĠĠĠ": 509,
      "tr": 510,
      "ĠÃł": 511,
      "age": 512,
      "Ġfrom": 513,
      "Ġres": 514,
      "uc": 515,
      "to": 516,
      "à¤": 517,
      "Ġus": 518,
      "ard": 519,
      "ts": 520,
      "Ġad": 521,
      "ĠIn": 522,
      "ated": 523,
      "li": 524,
      "ÏĦ": 525,
      "ord": 526,
      "ty": 527,
      "tions": 528,
      "Ġnot": 529,
      "Î±": 530,
      "ass": 531,
      "Î¿": 532,
      "Ġsh": 533,
      "ov": 534,
      "Ã³": 535,
      "ib": 536,
      "able": 537,
      ").": 538,
      "Ġles": 539,
      "Ġcont": 540,
      "Ð»": 541,
      "Ġel": 542,
      "Ã¨": 543,
      "ug": 544,
      "Ġthis": 545,
      "ach": 546,
      "ance": 547,
      "iti": 548,
      "ies": 549,
      "ĠĠĠĠĠĠĠĠĠĠĠĠĠĠĠĠ": 550,
      "are": 551,
      "ond": 552,
      "Ġper": 553,
      "me": 554,
      "ĠÂ": 555,
      "ations": 556,
      "ont": 557,
      "Ġar": 558,
      "ik": 559,
      "Ġ-": 560,
      "Ġtr": 561,
      "fer": 562,
      "ence": 563,
      "ĠĊ": 564,
      "Ġund": 565,
      "Î¹": 566,
      "Ġso": 567,
      ");": 568,
      "Ġha": 569,
      "Ã©s": 570,
      "Ġsp": 571,
      "lic": 572,
      "Ġcomp": 573,
      "),": 574,
      "ight": 575,
      "Ġ6": 576,
      "Ġque": 577,
      "Ġwe": 578,
      "ign": 579,
      "iss": 580,
      "form": 581,
      "Ġapp": 582,
      "ang": 583,
      "Ġ,": 584,
      "Ġab": 585,
      "Ġme": 586,
      "ob": 587,
      "out": 588,
      "ĠTh": 589,
      "'s": 590,
      "ind": 591,
      "Ġ*": 592,
      "Ġco": 593,
      "Ġwhich": 594,
      "Ġau": 595,
      "....": 596,
      "ĠâĢĶ": 597,
      "ame": 598,
      "Ġdis": 599,
      "Ġdo": 600,
      "ust": 601,
      "Ġpre": 602,
      "Ġdu": 603,
      "ung": 604,
      "Î½": 605,
      "au": 606,
      "Ġ19": 607,
      "//": 608,
      "Ġ[": 609,
      "res": 610,
      "ast": 611,
      "Ã¼": 612,
      "ther": 613,
      "ll": 614,
      "Ġ:": 615,
      "ase": 616,
      "ide": 617,
      "ost": 618,
      "ents": 619,
      "ice": 620,
      "Ġall": 621,
      "Ġ7": 622,
      "Ã¶": 623,
      "Ġ8": 624,
      "Ġcl": 625,
      "ĉĉ": 626,
      "Ø§": 627,
      "Ġder": 628,
      "enti": 629,
      "ary": 630,
      "ru": 631,
      "ten": 632,
      "ex": 633,
      "Ðº": 634,
      "ally": 635,
      "port": 636,
      "que": 637,
      "di": 638,
      "02": 639,
      "ĠÃ©": 640,
      "her": 641,
      "Ġcan": 642,
      "eg": 643,
      "ome": 644,
      "ons": 645,
      "Ð²": 646,
      "int": 647,
      "ks": 648,
      "vel": 649,
      "uld": 650,
      "ong": 651,
      "erv": 652,
      "Îµ": 653,
      ".,": 654,
      "ven": 655,
      "ip": 656,
      "Ġ'": 657,
      "ult": 658,
      "Ġhave": 659,
      "Ñĥ": 660,
      "ĠSt": 661,
      "Ġdi": 662,
      "Ġsa": 663,
      "Ġob": 664,
      "ite": 665,
      "ata": 666,
      "ier": 667,
      "Ġinter": 668,
      "ors": 669,
      "ile": 670,
      "Ġ9": 671,
      "ĠĠĠĠĠĠĠĠĠĠĠ": 672,
      "so": 673,
      "Ġro": 674,
      "erm": 675,
      "Ġ201": 676,
      "ear": 677,
      "Ïģ": 678,
      "ph": 679,
      "ft": 680,
      "----": 681,
      "Ġem": 682,
      "art": 683,
      "Ġra": 684,
      "**": 685,
      "ial": 686,
      "Ġno": 687,
      "Ïĥ": 688,
      "ij": 689,
      "ces": 690,
      "und": 691,
      "pt": 692,
      "io": 693,
      "pro": 694,
      "Ġman": 695,
      "pos": 696,
      "ok": 697,
      "Ġcons": 698,
      "Ġyou": 699,
      "up": 700,
      "cess": 701,
      "ace": 702,
      "omm": 703,
      "Ġ.": 704,
      "Ġav": 705,
      "Ġest": 706,
      "Ġam": 707,
      "ail": 708,
      "Ġ;": 709,
      "ical": 710,
      "du": 711,
      "Ġmay": 712,
      "che": 713,
      "ater": 714,
      "Ġsur": 715,
      "rib": 716,
      "ÏĢ": 717,
      "ale": 718,
      "ãģ": 719,
      "str": 720,
      "ien": 721,
      "act": 722,
      "ple": 723,
      "Ġ10": 724,
      "Ġcomm": 725,
      "one": 726,
      "10": 727,
      "we": 728,
      "Ð´": 729,
      "Î·": 730,
      "Ñı": 731,
      "ĠCh": 732,
      "yst": 733,
      "ese": 734,
      "ari": 735,
      "unt": 736,
      "Ġtra": 737,
      "Ġwere": 738,
      "Ġte": 739,
      "Ġ18": 740,
      "ke": 741,
      "Ġdie": 742,
      "Ġdel": 743,
      "Ġhas": 744,
      "oll": 745,
      "Ġer": 746,
      "Ġone": 747,
      "urn": 748,
      "les": 749,
      "Ġtheir": 750,
      "ys": 751,
      "ÏĤ": 752,
      "Ġag": 753,
      "ise": 754,
      "ject": 755,
      "Ġreg": 756,
      "ĠdÃ©": 757,
      "tiv": 758,
      "ait": 759,
      "ific": 760,
      "Ġif": 761,
      "Ġwill": 762,
      "Ġver": 763,
      "ai": 764,
      "ric": 765,
      "ÂłĊ": 766,
      "Ġsec": 767,
      "der": 768,
      "âĢĶ": 769,
      "ction": 770,
      "Ġhis": 771,
      "Ġes": 772,
      "Å¿": 773,
      "Ġ200": 774,
      "ran": 775,
      "Ð¼": 776,
      "19": 777,
      "clud": 778,
      "co": 779,
      "ack": 780,
      "ime": 781,
      "Ġsub": 782,
      "ould": 783,
      "ork": 784,
      "Ġmet": 785,
      "ĠÐ¿": 786,
      "az": 787,
      "Ġop": 788,
      "Ġpos": 789,
      "ates": 790,
      "ER": 791,
      "ory": 792,
      "Ġpe": 793,
      "ert": 794,
      "ah": 795,
      "ener": 796,
      "ins": 797,
      "Ġ$": 798,
      "Ġout": 799,
      "tit": 800,
      "tive": 801,
      "Ã©r": 802,
      "Ġpo": 803,
      "Ġval": 804,
      "Ġind": 805,
      "con": 806,
      "par": 807,
      "Äį": 808,
      "In": 809,
      "ef": 810,
      "Ġmod": 811,
      "Â»": 812,
      "ni": 813,
      "ON": 814,
      "ose": 815,
      "aj": 816,
      "12": 817,
      "Ġtrans": 818,
      "ual": 819,
      "Ġfe": 820,
      "ss": 821,
      "ating": 822,
      "Ġbut": 823,
      "Ġother": 824,
      "ES": 825,
      "Ġup": 826,
      "Ġform": 827,
      "ĠÑģ": 828,
      "ĠAn": 829,
      "Ġrel": 830,
      "Ïħ": 831,
      "Ġ×": 832,
      "Ġ&": 833,
      "Ġ},": 834,
      "Ġpour": 835,
      "ep": 836,
      "emb": 837,
      "own": 838,
      "ais": 839,
      "Ġil": 840,
      "Ġdans": 841,
      "Ġbet": 842,
      "fic": 843,
      "aus": 844,
      "Ġdif": 845,
      "Ġ<": 846,
      "urs": 847,
      "ings": 848,
      "Ã©e": 849,
      "red": 850,
      "ÙĦ": 851,
      "ood": 852,
      "ive": 853,
      "ann": 854,
      "ry": 855,
      "Å¡": 856,
      "Ġ12": 857,
      "Ġprov": 858,
      "Ġaut": 859,
      "ĠY": 860,
      "get": 861,
      "ition": 862,
      "Ġthey": 863,
      "ath": 864,
      "duc": 865,
      "cre": 866,
      "Ġdet": 867,
      "Ġits": 868,
      "ublic": 869,
      "Ġgro": 870,
      "type": 871,
      "Ġmore": 872,
      "Ġfin": 873,
      "be": 874,
      "11": 875,
      "irst": 876,
      "ii": 877,
      "oy": 878,
      "Ġthere": 879,
      "olog": 880,
      "iel": 881,
      "ĠZ": 882,
      "uro": 883,
      "Ġpres": 884,
      "The": 885,
      "ied": 886,
      "Ġqui": 887,
      "ĠÐ½": 888,
      "Ġmar": 889,
      "ures": 890,
      "its": 891,
      "Ġfl": 892,
      "Ġunder": 893,
      "ystem": 894,
      "Ã³n": 895,
      "Ġlo": 896,
      "ound": 897,
      "com": 898,
      "áĥ": 899,
      "val": 900,
      "Ġden": 901,
      "Ġass": 902,
      "IN": 903,
      "ps": 904,
      "ÐµÐ½": 905,
      "ely": 906,
      "ions": 907,
      "tim": 908,
      "fl": 909,
      "Ġour": 910,
      "Ġany": 911,
      "Ġinclud": 912,
      "Ġeff": 913,
      "itt": 914,
      "à¥": 915,
      "Ġbeen": 916,
      "EN": 917,
      "ÑĢÐ°": 918,
      "ĠØ": 919,
      "ock": 920,
      "__": 921,
      "ÑģÑĤ": 922,
      "ree": 923,
      "Ġsuch": 924,
      "air": 925,
      "000": 926,
      "Ñĩ": 927,
      "ĠUn": 928,
      "ix": 929,
      "ress": 930,
      "Ġmo": 931,
      "Ġret": 932,
      "ution": 933,
      "old": 934,
      "Ġrec": 935,
      "Ġaf": 936,
      "Ġresp": 937,
      "eb": 938,
      "ĠÏĦ": 939,
      "ade": 940,
      "Ġent": 941,
      "ern": 942,
      "Ð·": 943,
      "ode": 944,
      "ption": 945,
      "Ãª": 946,
      "ull": 947,
      "of": 948,
      "tern": 949,
      "ular": 950,
      "ew": 951,
      "Ñĭ": 952,
      "ld": 953,
      "Ġint": 954,
      "à¦": 955,
      "ren": 956,
      "ram": 957,
      "Ġhad": 958,
      "........": 959,
      "ĠĠĠĠĠĠĠĠĠĠĠĠĠĠĠ": 960,
      "Ġpol": 961,
      "ection": 962,
      "ev": 963,
      "ãĥ": 964,
      "ux": 965,
      "ient": 966,
      "à¸": 967,
      "201": 968,
      "wo": 969,
      "ish": 970,
      "ugh": 971,
      "ett": 972,
      "rit": 973,
      "Å¾": 974,
      "Ã§": 975,
      "ĠÐ²": 976,
      "Ġover": 977,
      "ÅĤ": 978,
      "ĠEn": 979,
      "ative": 980,
      "Ġsign": 981,
      "Â«": 982,
      "cial": 983,
      "ek": 984,
      "Ġinto": 985,
      "Äģ": 986,
      "ake": 987,
      "ute": 988,
      "elf": 989,
      "yl": 990,
      "ym": 991,
      "ĠÙ": 992,
      "ui": 993,
      "Ġph": 994,
      "ĠIt": 995,
      "Ġ15": 996,
      "ãĤ": 997,
      "ĠAr": 998,
      "ties": 999,
      "Ġalso": 1000,
      "ax": 1001,
      "onn": 1002,
      "Ġfirst": 1003,
      "ild": 1004,
      "AN": 1005,
      "til": 1006,
      "Ġinv": 1007,
      "Îº": 1008,
      "iew": 1009,
      "tt": 1010,
      "Ġcor": 1011,
      "Ġtime": 1012,
      "Î¼": 1013,
      "Ġwho": 1014,
      "AT": 1015,
      "ities": 1016,
      "Ġrem": 1017,
      "Äħ": 1018,
      "elle": 1019,
      "els": 1020,
      "Î¯": 1021,
      "Ġspec": 1022,
      "ian": 1023,
      "Ġabout": 1024,
      "ĠrÃ©": 1025,
      "Ġins": 1026,
      "15": 1027,
      "âĢĿ": 1028,
      "ased": 1029,
      "ĠÂ«": 1030,
      "Ġdem": 1031,
      "Ġthese": 1032,
      "Ġnew": 1033,
      "Ġbl": 1034,
      "AR": 1035,
      "igh": 1036,
      "Ġsome": 1037,
      "ĠCom": 1038,
      "itÃ©": 1039,
      "wn": 1040,
      "Ġwhen": 1041,
      "ays": 1042,
      "cri": 1043,
      "ues": 1044,
      "ember": 1045,
      "Ġwhere": 1046,
      "()": 1047,
      "Ġune": 1048,
      "Ġacc": 1049,
      "Ġvo": 1050,
      "13": 1051,
      "cy": 1052,
      "ze": 1053,
      "gan": 1054,
      "Ġ|": 1055,
      "tre": 1056,
      "ants": 1057,
      "Ġthan": 1058,
      "gen": 1059,
      "Ġpor": 1060,
      "ets": 1061,
      "Ġinform": 1062,
      "Ġcol": 1063,
      "Ġdef": 1064,
      "Ð³": 1065,
      "Ġpers": 1066,
      "Ġna": 1067,
      "Ġcar": 1068,
      "ÑĮ": 1069,
      "Ġche": 1070,
      "Ġmed": 1071,
      "ween": 1072,
      "cc": 1073,
      "Ġpri": 1074,
      "Ġou": 1075,
      "Ġvan": 1076,
      "18": 1077,
      "Ġâ": 1078,
      "yn": 1079,
      "Ġdata": 1080,
      "ĠÐ¸": 1081,
      "Ġyour": 1082,
      "20": 1083,
      "Ġthem": 1084,
      "14": 1085,
      "uch": 1086,
      "Ġ13": 1087,
      "hod": 1088,
      "Ð¿": 1089,
      "Ġda": 1090,
      "Î»": 1091,
      "Ġà¤": 1092,
      "ĠLe": 1093,
      "put": 1094,
      "ĠPro": 1095,
      "oth": 1096,
      "Ãł": 1097,
      "Ġein": 1098,
      "ques": 1099,
      "ission": 1100,
      "AL": 1101,
      "ene": 1102,
      "gl": 1103,
      "als": 1104,
      "une": 1105,
      "rough": 1106,
      "OR": 1107,
      "ament": 1108,
      "16": 1109,
      "Ġ14": 1110,
      "ĠÐ¾": 1111,
      "Ġ16": 1112,
      "ility": 1113,
      "Ġdev": 1114,
      "min": 1115,
      "Ġdire": 1116,
      "ning": 1117,
      "--------": 1118,
      "Ġdur": 1119,
      "Ġatt": 1120,
      "Ġdist": 1121,
      "Ġbetween": 1122,
      "Ġlos": 1123,
      "reat": 1124,
      "ÑĬ": 1125,
      "quire": 1126,
      "je": 1127,
      "50": 1128,
      "por": 1129,
      "ize": 1130,
      "Ġnon": 1131,
      "==": 1132,
      "ink": 1133,
      "Ġgo": 1134,
      "Ġsupp": 1135,
      "ĠâĢĵ": 1136,
      "la": 1137,
      "tÃ©": 1138,
      "the": 1139,
      "Ġ+": 1140,
      "Ġsc": 1141,
      "Äĥ": 1142,
      "Ġsystem": 1143,
      "na": 1144,
      "uss": 1145,
      "xt": 1146,
      "any": 1147,
      "Ġli": 1148,
      "cid": 1149,
      "Ġ17": 1150,
      "Ġmin": 1151,
      "ments": 1152,
      "Ġpublic": 1153,
      "Ġnum": 1154,
      "dition": 1155,
      "ected": 1156,
      "ĠQ": 1157,
      "Ñĸ": 1158,
      "ĠThis": 1159,
      "ced": 1160,
      "Ġserv": 1161,
      "ange": 1162,
      "Ġpas": 1163,
      "Ġ20": 1164,
      "oh": 1165,
      "Ġsol": 1166,
      "hed": 1167,
      "ĠPar": 1168,
      "Ġlik": 1169,
      "ret": 1170,
      "ĠAl": 1171,
      "eng": 1172,
      "Ġher": 1173,
      "ower": 1174,
      "Ġdiffer": 1175,
      "ature": 1176,
      "Ġstr": 1177,
      "sk": 1178,
      "Ġser": 1179,
      "Ġid": 1180,
      "âĢĵ": 1181,
      ".\"": 1182,
      "ĠÐ½Ð°": 1183,
      "ck": 1184,
      "Ġstud": 1185,
      "Ġgener": 1186,
      "Ġ^": 1187,
      "mer": 1188,
      "oug": 1189,
      "Ð¾Ð²": 1190,
      "Ġgr": 1191,
      "Ø±": 1192,
      "IS": 1193,
      "Ġchar": 1194,
      "Ġ/": 1195,
      "ÙĨ": 1196,
      "vent": 1197,
      "ÃŁ": 1198,
      "Ġce": 1199,
      "Ð°Ð½": 1200,
      "ype": 1201,
      "Ġkn": 1202,
      "Ã©n": 1203,
      "ĠRe": 1204,
      "ements": 1205,
      "ĠX": 1206,
      "Ġtwo": 1207,
      "30": 1208,
      "ider": 1209,
      "à°": 1210,
      "aire": 1211,
      "Ġexam": 1212,
      "Ġwould": 1213,
      "no": 1214,
      "ÙĬ": 1215,
      "::": 1216,
      "ible": 1217,
      "Ïī": 1218,
      "Ġconf": 1219,
      "ational": 1220,
      "à®": 1221,
      "Ġreturn": 1222,
      "Ġbo": 1223,
      "sp": 1224,
      "cip": 1225,
      "Ġfun": 1226,
      "ves": 1227,
      "Ġcap": 1228,
      "ĠÂ»": 1229,
      "Ġend": 1230,
      "Ġthrough": 1231,
      "Ġyear": 1232,
      "17": 1233,
      "Ñħ": 1234,
      "iÃ³n": 1235,
      "ÑĢÐµ": 1236,
      "lo": 1237,
      "ĠMar": 1238,
      "II": 1239,
      "go": 1240,
      "ĠâĢľ": 1241,
      "Ġvari": 1242,
      "Å¼": 1243,
      "Ġmen": 1244,
      "IG": 1245,
      "ages": 1246,
      "app": 1247,
      "ration": 1248,
      "Ġwork": 1249,
      "Ġoper": 1250,
      "ner": 1251,
      "Ġmon": 1252,
      "ÏĮ": 1253,
      "Ġsi": 1254,
      "Ġprocess": 1255,
      "ruct": 1256,
      "Ġpresent": 1257,
      "ĠLa": 1258,
      "ĠSch": 1259,
      "Ġused": 1260,
      "25": 1261,
      "Ġeach": 1262,
      "Ã©es": 1263,
      "ĠWe": 1264,
      "ãĢ": 1265,
      "200": 1266,
      "IT": 1267,
      "ĠâĢ¢": 1268,
      "ger": 1269,
      "vo": 1270,
      "Ġpart": 1271,
      "hr": 1272,
      "rol": 1273,
      "ices": 1274,
      "af": 1275,
      "den": 1276,
      "ĠSe": 1277,
      "ĠComm": 1278,
      "ble": 1279,
      "ĠHe": 1280,
      "ator": 1281,
      "Ã¨re": 1282,
      "ma": 1283,
      "=\"": 1284,
      "Ġbec": 1285,
      "Ġexp": 1286,
      "press": 1287,
      "ÄĻ": 1288,
      "ick": 1289,
      "very": 1290,
      "Ġje": 1291,
      "aut": 1292,
      "Ãº": 1293,
      "Ġsecond": 1294,
      "sh": 1295,
      "ited": 1296,
      "ĠWh": 1297,
      "Ġloc": 1298,
      "ined": 1299,
      "ollow": 1300,
      "Ġtem": 1301,
      "Ġ//": 1302,
      "ka": 1303,
      "ural": 1304,
      "Ġsim": 1305,
      "Ð±": 1306,
      "Ġpra": 1307,
      "ĠĠĠĠĠĠĠĠĠ": 1308,
      "fore": 1309,
      "Î¿Ïħ": 1310,
      "ism": 1311,
      "ĠÐ´": 1312,
      "Ġcour": 1313,
      "22": 1314,
      "ta": 1315,
      "ÙĪ": 1316,
      "202": 1317,
      "Ġ202": 1318,
      "icht": 1319,
      "po": 1320,
      "ext": 1321,
      "ĠDe": 1322,
      "Ã½": 1323,
      "Ġvon": 1324,
      "ward": 1325,
      "ÑĤÐµ": 1326,
      "****": 1327,
      "ÑĤÐ°": 1328,
      "ĠCo": 1329,
      "tical": 1330,
      "×Ļ": 1331,
      "iment": 1332,
      "Ġx": 1333,
      "ful": 1334,
      "Ġonly": 1335,
      "Ã£": 1336,
      "Ġprodu": 1337,
      "UR": 1338,
      "ÑĨ": 1339,
      "Ġext": 1340,
      "ause": 1341,
      "Ġfil": 1342,
      "ĠØ§": 1343,
      "ines": 1344,
      "Ġsaid": 1345,
      "ja": 1346,
      "Ð¹": 1347,
      "ĠÐº": 1348,
      "Ġplus": 1349,
      "Ã¥": 1350,
      "Ġ11": 1351,
      "ats": 1352,
      "24": 1353,
      "Ġhow": 1354,
      "ield": 1355,
      "urr": 1356,
      "Ġlike": 1357,
      "ved": 1358,
      "ivers": 1359,
      "ben": 1360,
      "ron": 1361,
      "Ġ]": 1362,
      "Ġvol": 1363,
      "uf": 1364,
      "Ġuse": 1365,
      "',": 1366,
      "Ġed": 1367,
      "ĠĠĠĠĠĠĠĠĠĠĠĠĠĠĠĠĠĠĠ": 1368,
      "ww": 1369,
      "yp": 1370,
      "AS": 1371,
      "bo": 1372,
      "Ġconc": 1373,
      "Ġ30": 1374,
      "ÑĢÐ¸": 1375,
      "Ã£o": 1376,
      "Ùħ": 1377,
      "Ġterm": 1378,
      "à²": 1379,
      "ado": 1380,
      "ĠÏĢ": 1381,
      "Ġke": 1382,
      "vers": 1383,
      "pres": 1384,
      "ette": 1385,
      "Ġmy": 1386,
      "led": 1387,
      "aux": 1388,
      "IC": 1389,
      "Î¬": 1390,
      "bod": 1391,
      "ized": 1392,
      "ision": 1393,
      "Ä«": 1394,
      "velop": 1395,
      "Ġmat": 1396,
      "Ġcas": 1397,
      "ument": 1398,
      "Ġfollow": 1399,
      "Ã©t": 1400,
      "Ġgra": 1401,
      "Ġappro": 1402,
      "kt": 1403,
      "->": 1404,
      "23": 1405,
      "ĠAs": 1406,
      "ĠCon": 1407,
      "Ã¼r": 1408,
      "Ġmethod": 1409,
      "Ġson": 1410,
      "erg": 1411,
      "string": 1412,
      "ina": 1413,
      "arm": 1414,
      "ital": 1415,
      "land": 1416,
      "ique": 1417,
      "chen": 1418,
      "ĠFor": 1419,
      "99": 1420,
      "Ġparti": 1421,
      "Ġhigh": 1422,
      "att": 1423,
      "Ġsk": 1424,
      "ĠÎ±": 1425,
      "Ġhim": 1426,
      "ray": 1427,
      "Ġ%": 1428,
      "Ġ!": 1429,
      "ters": 1430,
      "Ġrece": 1431,
      "inal": 1432,
      "ule": 1433,
      "cul": 1434,
      "ĠEuro": 1435,
      "ho": 1436,
      "Ġter": 1437,
      "uer": 1438,
      "Ð½Ð¸": 1439,
      "ÑĤÐ¾": 1440,
      "Ġclass": 1441,
      "Ġcommun": 1442,
      "Ã¨s": 1443,
      "...": 1444,
      "Ġconst": 1445,
      "ĠEx": 1446,
      "Ġwor": 1447,
      "ium": 1448,
      "Ġev": 1449,
      "40": 1450,
      "Ġcell": 1451,
      "Ã¶r": 1452,
      "×ķ": 1453,
      "anti": 1454,
      "Ġ25": 1455,
      "ÎŃ": 1456,
      "Ġprovid": 1457,
      "iet": 1458,
      "Ġprog": 1459,
      "Ġbr": 1460,
      "ank": 1461,
      "fe": 1462,
      "ense": 1463,
      "ticle": 1464,
      "Ġlong": 1465,
      "Ġafter": 1466,
      "Ġcre": 1467,
      "enn": 1468,
      "Ġaux": 1469,
      "Ġbel": 1470,
      "ato": 1471,
      "vi": 1472,
      "anc": 1473,
      "tig": 1474,
      "Ġusing": 1475,
      "ever": 1476,
      "ĠSo": 1477,
      "Î³": 1478,
      "Ġ?": 1479,
      "Ġwhat": 1480,
      "name": 1481,
      "ada": 1482,
      "ane": 1483,
      "other": 1484,
      "Ġimport": 1485,
      "32": 1486,
      "Ġzu": 1487,
      "ton": 1488,
      "ION": 1489,
      "Ġge": 1490,
      "RE": 1491,
      "aw": 1492,
      "ÑĪ": 1493,
      "Ġthen": 1494,
      "ife": 1495,
      "ences": 1496,
      "Ġbu": 1497,
      "Ã´": 1498,
      "Ġanal": 1499,
      "Ġadd": 1500,
      "LE": 1501,
      "eth": 1502,
      "Ġcould": 1503,
      "tain": 1504,
      "ĠMr": 1505,
      "bre": 1506,
      "tis": 1507,
      "].": 1508,
      "quired": 1509,
      "Ġshould": 1510,
      "St": 1511,
      "Ġsm": 1512,
      "Ġset": 1513,
      "Ġinformation": 1514,
      "Ġwell": 1515,
      "ĠâĢŀ": 1516,
      "Ġact": 1517,
      "ivid": 1518,
      "Ġmain": 1519,
      "ĠAnd": 1520,
      "des": 1521,
      "ĠNo": 1522,
      "ract": 1523,
      "Ġlas": 1524,
      "Ġcr": 1525,
      "ĠAd": 1526,
      "Ġaff": 1527,
      "amp": 1528,
      "ente": 1529,
      "ior": 1530,
      "lich": 1531,
      "ales": 1532,
      "ille": 1533,
      "Ġpass": 1534,
      "ily": 1535,
      "pec": 1536,
      "Ġvalue": 1537,
      "man": 1538,
      "AC": 1539,
      "Ġmit": 1540,
      "ï¼": 1541,
      "row": 1542,
      "(\"": 1543,
      "Ã©g": 1544,
      "ough": 1545,
      "Ġincre": 1546,
      "Ġinst": 1547,
      "Ġcent": 1548,
      "ione": 1549,
      "chn": 1550,
      "ertain": 1551,
      "ark": 1552,
      "Ġexpl": 1553,
      "ove": 1554,
      "Ġpot": 1555,
      "vention": 1556,
      "Ġmade": 1557,
      "Ġoff": 1558,
      "Ġapplic": 1559,
      "Ð¾Ð´": 1560,
      "ĠÏĥ": 1561,
      "za": 1562,
      "Ġir": 1563,
      "Ġdep": 1564,
      "ination": 1565,
      "Ð½Ð°": 1566,
      "Ġmater": 1567,
      "uit": 1568,
      "ave": 1569,
      "atic": 1570,
      "Ġbeing": 1571,
      "à´": 1572,
      "\":{": 1573,
      "Ġ)": 1574,
      "Ġshe": 1575,
      "Øª": 1576,
      "Î®": 1577,
      "Â°": 1578,
      "Ġposs": 1579,
      "ness": 1580,
      "Ġste": 1581,
      "Ġsch": 1582,
      "Ġequ": 1583,
      "Th": 1584,
      "aim": 1585,
      "br": 1586,
      "tif": 1587,
      "Ãµ": 1588,
      "Ġsont": 1589,
      "ĠÎº": 1590,
      "Ġfr": 1591,
      "ga": 1592,
      "yd": 1593,
      "Ġexper": 1594,
      "Ġshow": 1595,
      "Ġve": 1596,
      "Ġpartic": 1597,
      "crib": 1598,
      "Ã©d": 1599,
      "\":\"": 1600,
      "Ġprin": 1601,
      "ĠÐ·": 1602,
      "Ġcase": 1603,
      "Ġorgan": 1604,
      "ges": 1605,
      "Ġtro": 1606,
      "://": 1607,
      "raph": 1608,
      "Ġref": 1609,
      "Ġdifferent": 1610,
      "ĠÎµ": 1611,
      "60": 1612,
      "Ð»Ð¸": 1613,
      "Ġgl": 1614,
      "Ġgroup": 1615,
      "))": 1616,
      "face": 1617,
      "irc": 1618,
      "ared": 1619,
      "Ġfac": 1620,
      "Ġinc": 1621,
      "Ġneed": 1622,
      "hip": 1623,
      "aciÃ³n": 1624,
      "Ġimp": 1625,
      "Ġdevelop": 1626,
      "Ġconn": 1627,
      "by": 1628,
      "80": 1629,
      "alth": 1630,
      "'t": 1631,
      "ms": 1632,
      "34": 1633,
      "Ġlet": 1634,
      "ote": 1635,
      "ict": 1636,
      "iter": 1637,
      "men": 1638,
      "reg": 1639,
      "ili": 1640,
      "nal": 1641,
      "soci": 1642,
      "Ġ@": 1643,
      "Ġsel": 1644,
      "stand": 1645,
      "Ġod": 1646,
      "Ġthose": 1647,
      "ole": 1648,
      "ource": 1649,
      "ople": 1650,
      "Ġ24": 1651,
      "Ġget": 1652,
      "for": 1653,
      "Ġsame": 1654,
      "abl": 1655,
      "ante": 1656,
      "Ġdec": 1657,
      "Ġmost": 1658,
      "Ġprof": 1659,
      "90": 1660,
      "HE": 1661,
      "Ġcompl": 1662,
      "cription": 1663,
      "vern": 1664,
      "ulation": 1665,
      "Ġris": 1666,
      "Ã©c": 1667,
      "Ġ50": 1668,
      "Ġexample": 1669,
      "Ġperform": 1670,
      "Ġgu": 1671,
      "Ġlim": 1672,
      "OM": 1673,
      "va": 1674,
      "ird": 1675,
      "ording": 1676,
      "Ġnumber": 1677,
      "Ġduring": 1678,
      "Ġelect": 1679,
      "Ð¾Ð»": 1680,
      "urther": 1681,
      "Ã¡n": 1682,
      "Ġknow": 1683,
      "Ġhand": 1684,
      "urrent": 1685,
      "Î¹Îº": 1686,
      "Ġvis": 1687,
      "Ġlar": 1688,
      "ella": 1689,
      "Ð½Ð¾": 1690,
      "acter": 1691,
      "ential": 1692,
      "Ġright": 1693,
      "round": 1694,
      "perties": 1695,
      "Ø¯": 1696,
      "Ġactiv": 1697,
      "atis": 1698,
      "hor": 1699,
      "ances": 1700,
      "Ð»Ð°": 1701,
      "use": 1702,
      "ror": 1703,
      "Ġresult": 1704,
      "ST": 1705,
      "Ġwithin": 1706,
      "Ġques": 1707,
      "Ġfact": 1708,
      "ÅĽ": 1709,
      "33": 1710,
      "ĠComp": 1711,
      "mi": 1712,
      "pris": 1713,
      "lig": 1714,
      "ured": 1715,
      "Ġconsider": 1716,
      "ID": 1717,
      "64": 1718,
      "Ar": 1719,
      "Ð¶": 1720,
      "Ġagain": 1721,
      "ĠÃ©t": 1722,
      "vir": 1723,
      "Ġinf": 1724,
      "27": 1725,
      "Ġfunction": 1726,
      "zen": 1727,
      "ET": 1728,
      "ateg": 1729,
      "arn": 1730,
      "×Ļ×": 1731,
      "lement": 1732,
      "Î±Î¹": 1733,
      "ete": 1734,
      "aving": 1735,
      "................": 1736,
      "Ġtal": 1737,
      "Ġidenti": 1738,
      "ults": 1739,
      "ĠOn": 1740,
      "ours": 1741,
      "ott": 1742,
      "Re": 1743,
      "cept": 1744,
      "Ġtest": 1745,
      "ability": 1746,
      "iod": 1747,
      "Ġcontrol": 1748,
      "();": 1749,
      "Ġdeterm": 1750,
      "pon": 1751,
      "Ġincluding": 1752,
      "ele": 1753,
      "ĠBe": 1754,
      "lex": 1755,
      "Ġperson": 1756,
      "Pro": 1757,
      "Ã¢": 1758,
      "Ġavec": 1759,
      "Ġfra": 1760,
      "],": 1761,
      "Ġtak": 1762,
      "Ïĩ": 1763,
      "ology": 1764,
      "earch": 1765,
      "import": 1766,
      "Ġcoun": 1767,
      "ĠØ§ÙĦ": 1768,
      "Ġom": 1769,
      "##": 1770,
      "Ġhere": 1771,
      "Ġstruct": 1772,
      "text": 1773,
      "atus": 1774,
      "Ġcontin": 1775,
      "Ġben": 1776,
      "Ġhet": 1777,
      "ÑģÐº": 1778,
      "read": 1779,
      "ĠVer": 1780,
      "Ġauf": 1781,
      "ization": 1782,
      "Ġleg": 1783,
      "zy": 1784,
      "Ġmark": 1785,
      "ros": 1786,
      "ih": 1787,
      "gr": 1788,
      "Ġpur": 1789,
      "âĢ¢": 1790,
      "Ùĩ": 1791,
      "Ġrefer": 1792,
      "ĠPr": 1793,
      "ool": 1794,
      "Ġwhile": 1795,
      "Ġboth": 1796,
      "Ġcall": 1797,
      "Ġsl": 1798,
      "serv": 1799,
      "Ġ100": 1800,
      "Ġfinan": 1801,
      "EC": 1802,
      "ED": 1803,
      "ler": 1804,
      "med": 1805,
      "28": 1806,
      "Ġhum": 1807,
      "set": 1808,
      "ĉĉĉĉ": 1809,
      "Ġevery": 1810,
      "ica": 1811,
      "do": 1812,
      "):": 1813,
      "vely": 1814,
      "ende": 1815,
      "Äĵ": 1816,
      "ini": 1817,
      "ÛĮ": 1818,
      "lect": 1819,
      "Ã¤r": 1820,
      "cia": 1821,
      "Ġ199": 1822,
      "×ķ×": 1823,
      "Ġupon": 1824,
      "cr": 1825,
      "Ġsom": 1826,
      "duction": 1827,
      "eter": 1828,
      "ande": 1829,
      "ng": 1830,
      "Ġsignific": 1831,
      "35": 1832,
      "Ġpara": 1833,
      "ÈĽ": 1834,
      "Ð¾Ð¼": 1835,
      "ars": 1836,
      "Ġvers": 1837,
      "wer": 1838,
      "Ġembod": 1839,
      "Ġcal": 1840,
      "26": 1841,
      "Ġfound": 1842,
      "ĠÐ¼": 1843,
      "ä¸": 1844,
      "75": 1845,
      "Ġja": 1846,
      "work": 1847,
      "Ġprot": 1848,
      "ĠIl": 1849,
      "ustr": 1850,
      "ross": 1851,
      "uk": 1852,
      "erc": 1853,
      "ash": 1854,
      "Ġill": 1855,
      "EL": 1856,
      "Ã¡s": 1857,
      "ĠPl": 1858,
      "Ġma": 1859,
      "Ġpat": 1860,
      "org": 1861,
      "ount": 1862,
      "ali": 1863,
      "pri": 1864,
      "Ġprim": 1865,
      "Ġread": 1866,
      "ploy": 1867,
      "Ġown": 1868,
      "Ġdom": 1869,
      "ĠInd": 1870,
      "Ġeven": 1871,
      "Ġbefore": 1872,
      "Ġeffect": 1873,
      "Ġvery": 1874,
      "Ġyears": 1875,
      "29": 1876,
      "Ġgen": 1877,
      "rel": 1878,
      "Ġclaim": 1879,
      "ici": 1880,
      "ality": 1881,
      "ÑĤÐ¸": 1882,
      "Ġdevice": 1883,
      "Ġfind": 1884,
      "bl": 1885,
      "Ġdon": 1886,
      "ino": 1887,
      "Ġocc": 1888,
      "70": 1889,
      "Ġsit": 1890,
      "Ð²Ð°": 1891,
      "ĠÅ¿": 1892,
      "Ġnet": 1893,
      "Ġmaterial": 1894,
      "Ġsupport": 1895,
      "Ġword": 1896,
      "object": 1897,
      "Ex": 1898,
      "Ġdas": 1899,
      "action": 1900,
      "à¤¾": 1901,
      "AM": 1902,
      "Ñİ": 1903,
      "ÅĻ": 1904,
      "Ġgiv": 1905,
      "Ġpeople": 1906,
      "Ġmul": 1907,
      "agn": 1908,
      "Ġfam": 1909,
      "Ä§": 1910,
      "Ġum": 1911,
      ".)": 1912,
      "Ġprogram": 1913,
      "Ġtot": 1914,
      "Ġpoint": 1915,
      "Ġ>": 1916,
      "iness": 1917,
      "ective": 1918,
      "Ġgood": 1919,
      "ENT": 1920,
      "Ġspecific": 1921,
      "Ġpati": 1922,
      "Ġfo": 1923,
      "ae": 1924,
      "ĠNew": 1925,
      "clus": 1926,
      "ÄĽ": 1927,
      "Î´": 1928,
      "ĠGo": 1929,
      "Ġnow": 1930,
      "ends": 1931,
      "present": 1932,
      "45": 1933,
      "Ġ31": 1934,
      "ived": 1935,
      "ished": 1936,
      "ĠOr": 1937,
      "ather": 1938,
      "Ġmeas": 1939,
      "Äĩ": 1940,
      "Ġrequ": 1941,
      "Ġbas": 1942,
      "ĠCl": 1943,
      "ĠReg": 1944,
      "ste": 1945,
      "ples": 1946,
      "Ġmany": 1947,
      "ĠÐ±": 1948,
      "Ġeng": 1949,
      "ych": 1950,
      "Ġ_": 1951,
      "Ġreport": 1952,
      "Å³": 1953,
      "ister": 1954,
      "Ġpower": 1955,
      "Ġmil": 1956,
      "Ġhist": 1957,
      "ĠTr": 1958,
      "ief": 1959,
      "Ġmill": 1960,
      "kl": 1961,
      "Ġta": 1962,
      "abil": 1963,
      "Ġlevel": 1964,
      "Ġsam": 1965,
      "Ġpod": 1966,
      "IL": 1967,
      "ems": 1968,
      "21": 1969,
      "ĠÃ¼": 1970,
      "roll": 1971,
      "pre": 1972,
      "Ãī": 1973,
      "lev": 1974,
      "ÏĨ": 1975,
      "Ġstudy": 1976,
      "Ġrest": 1977,
      "Ġnec": 1978,
      "Ġ28": 1979,
      "38": 1980,
      "Ġmemb": 1981,
      "tes": 1982,
      "RO": 1983,
      ",\"": 1984,
      "tice": 1985,
      "Ïį": 1986,
      "Ġwar": 1987,
      "Ġcertain": 1988,
      "Ġsin": 1989,
      "ral": 1990,
      "Ġbro": 1991,
      "ouse": 1992,
      "Ġtri": 1993,
      "ris": 1994,
      "orn": 1995,
      "Ġdirect": 1996,
      "ident": 1997,
      "Ġinterest": 1998,
      "ains": 1999,
      "Ġlay": 2000,
      "Ġ#": 2001,
      "count": 2002,
      "Ġself": 2003,
      "Î¸": 2004,
      "ĠII": 2005,
      "cher": 2006,
      "tring": 2007,
      "âĤ": 2008,
      "Ġpriv": 2009,
      "not": 2010,
      "ining": 2011,
      "Ġpi": 2012,
      "ches": 2013,
      "Con": 2014,
      "atur": 2015,
      "Ġhel": 2016,
      "Ġlist": 2017,
      "ĠPh": 2018,
      "fo": 2019,
      "pond": 2020,
      "Ġbus": 2021,
      "ÄĹ": 2022,
      "Ġcirc": 2023,
      "less": 2024,
      "Ġhab": 2025,
      "Ġdisc": 2026,
      "ĠTo": 2027,
      "ĠHow": 2028,
      "utes": 2029,
      "Ġdescrib": 2030,
      "Ġassoci": 2031,
      "36": 2032,
      "Ð¾Ð³": 2033,
      "Ġorder": 2034,
      "Ġdid": 2035,
      "Ġmake": 2036,
      "04": 2037,
      "0000": 2038,
      "ession": 2039,
      "ames": 2040,
      "('": 2041,
      "ores": 2042,
      "alt": 2043,
      "Ġbased": 2044,
      "Ġback": 2045,
      "Ch": 2046,
      "ĠÐ·Ð°": 2047,
      "Ġstate": 2048,
      "Ġbi": 2049,
      "Ġ26": 2050,
      "31": 2051,
      "ĠFr": 2052,
      "tics": 2053,
      "arly": 2054,
      "aires": 2055,
      "ungen": 2056,
      "Ġtype": 2057,
      "ĠLes": 2058,
      "Î·ÏĤ": 2059,
      "inn": 2060,
      "Ø³": 2061,
      "Ã¤n": 2062,
      "Ġdat": 2063,
      "ÏģÎ¿": 2064,
      "Ġiss": 2065,
      "Ġfre": 2066,
      "ĠÎ¼": 2067,
      "uis": 2068,
      "ko": 2069,
      "Ġthree": 2070,
      "Ġpop": 2071,
      "cent": 2072,
      "ands": 2073,
      "____": 2074,
      "lt": 2075,
      "Un": 2076,
      "ysis": 2077,
      "hen": 2078,
      "mo": 2079,
      "Ġproduct": 2080,
      "ditions": 2081,
      "ÐµÐ½Ð¸": 2082,
      "ken": 2083,
      "Ġline": 2084,
      "====": 2085,
      "Ġenc": 2086,
      "ba": 2087,
      "ĠSp": 2088,
      "Ġwithout": 2089,
      "ser": 2090,
      "line": 2091,
      "Ã¦": 2092,
      "ĠÄ": 2093,
      "78": 2094,
      "agement": 2095,
      "Ġrev": 2096,
      "till": 2097,
      "ics": 2098,
      "Ġap": 2099,
      "day": 2100,
      "way": 2101,
      "En": 2102,
      "Ġmust": 2103,
      "Ġindic": 2104,
      "Ġans": 2105,
      "ĠĠĠĠĠĠĠĠĠĠĠĠĠĠĠĠĠĠĠĠĠĠĠ": 2106,
      "ĠDE": 2107,
      "ju": 2108,
      "Ġadv": 2109,
      "âĢľ": 2110,
      "Ġvi": 2111,
      "Ġdro": 2112,
      "----------------": 2113,
      "ĠEurope": 2114,
      "Ġdown": 2115,
      "Ġuna": 2116,
      "ason": 2117,
      "ables": 2118,
      "ĠIN": 2119,
      "ĠRes": 2120,
      "Ġindivid": 2121,
      "inter": 2122,
      "pport": 2123,
      "ĠIf": 2124,
      "ÎµÎ¹": 2125,
      "Ġsens": 2126,
      "ĠEr": 2127,
      "struc": 2128,
      "Ġaddition": 2129,
      "ano": 2130,
      "Ġname": 2131,
      "ately": 2132,
      "Ġcare": 2133,
      "ffic": 2134,
      "ude": 2135,
      "ĠIm": 2136,
      "mes": 2137,
      "Ġos": 2138,
      "39": 2139,
      "ÏīÎ½": 2140,
      "Ġinde": 2141,
      "Ġsee": 2142,
      "ÂłÂł": 2143,
      "Ġentre": 2144,
      "Ġdr": 2145,
      "Ġexpress": 2146,
      "Ġann": 2147,
      "Ġza": 2148,
      "Ġfa": 2149,
      "ĠAm": 2150,
      "ases": 2151,
      "era": 2152,
      "An": 2153,
      "Ġnom": 2154,
      "son": 2155,
      "ĠAb": 2156,
      "cont": 2157,
      "Ġcomb": 2158,
      "37": 2159,
      "Ġbre": 2160,
      "Ġlaw": 2161,
      "Ġ21": 2162,
      "ÐµÑĢ": 2163,
      "Ġni": 2164,
      "ume": 2165,
      "ji": 2166,
      "ently": 2167,
      "Ã®": 2168,
      "OL": 2169,
      "ender": 2170,
      "Ġsignificant": 2171,
      "ĠFIG": 2172,
      "Ġmak": 2173,
      "Ã±": 2174,
      "itor": 2175,
      "oni": 2176,
      "Ġdoes": 2177,
      "Ġhaving": 2178,
      "Ġreal": 2179,
      "ana": 2180,
      "Ġfollowing": 2181,
      "ki": 2182,
      ")(": 2183,
      "ody": 2184,
      "itions": 2185,
      "Ġparticular": 2186,
      "ox": 2187,
      "plic": 2188,
      "ĠÐ³": 2189,
      "conom": 2190,
      "tik": 2191,
      "Ġtar": 2192,
      "elles": 2193,
      "Ġ27": 2194,
      "ĠÃ©tÃ©": 2195,
      "Ġallow": 2196,
      "Ã¸": 2197,
      "ape": 2198,
      "Ġ29": 2199,
      "arg": 2200,
      "uring": 2201,
      "uv": 2202,
      "Ġpa": 2203,
      "Ã§Ã£o": 2204,
      "Ġplace": 2205,
      "igen": 2206,
      "ety": 2207,
      "ĠDec": 2208,
      "Ġbecause": 2209,
      "uation": 2210,
      "ĠEl": 2211,
      "AP": 2212,
      "Ġ40": 2213,
      "Ġtre": 2214,
      "ograph": 2215,
      "ector": 2216,
      "Ġ22": 2217,
      "ÑĦ": 2218,
      "minist": 2219,
      "ĠÂł": 2220,
      "Ġgreat": 2221,
      "Ġess": 2222,
      "Ġjust": 2223,
      "Ġday": 2224,
      "bi": 2225,
      "htt": 2226,
      "Ġperiod": 2227,
      "Ġchang": 2228,
      "Ġway": 2229,
      "cer": 2230,
      "Åĳ": 2231,
      "viron": 2232,
      "Ġstand": 2233,
      "Ġopen": 2234,
      "ued": 2235,
      "Ġwater": 2236,
      "ĠÃ®": 2237,
      "Ø¨": 2238,
      "ĠÃ¡": 2239,
      "Ġposition": 2240,
      "Ġnull": 2241,
      "Ġliv": 2242,
      "Ġmuch": 2243,
      "65": 2244,
      "gg": 2245,
      "ados": 2246,
      "met": 2247,
      "Ġlight": 2248,
      "á»": 2249,
      "44": 2250,
      "ĠSh": 2251,
      "Ġist": 2252,
      "ĠfÃ¼r": 2253,
      "ige": 2254,
      "Ġber": 2255,
      "Ġlead": 2256,
      "col": 2257,
      "properties": 2258,
      "Ġfurther": 2259,
      "Ġcurrent": 2260,
      "Ġsoci": 2261,
      "Ġfut": 2262,
      "Ġont": 2263,
      "ted": 2264,
      "ĠOF": 2265,
      "Ġ*/": 2266,
      "atch": 2267,
      "Ġvar": 2268,
      "ĠQu": 2269,
      "à¯": 2270,
      "ogle": 2271,
      "Ġleast": 2272,
      "ĠMe": 2273,
      "Ġfour": 2274,
      "Ġmodel": 2275,
      "Ġprac": 2276,
      "unc": 2277,
      "nÃŃ": 2278,
      "</": 2279,
      "rac": 2280,
      "uj": 2281,
      "Ġdesign": 2282,
      "Ġpost": 2283,
      "self": 2284,
      "Ġbes": 2285,
      "Ñī": 2286,
      "Ġdue": 2287,
      "ength": 2288,
      "rad": 2289,
      "Ġtext": 2290,
      "isation": 2291,
      "Ġwer": 2292,
      "ĠCompany": 2293,
      "Ġmov": 2294,
      "ura": 2295,
      "oir": 2296,
      "ended": 2297,
      "Ġpred": 2298,
      "Id": 2299,
      "Name": 2300,
      "pi": 2301,
      "tific": 2302,
      "Ġnous": 2303,
      "Ġog": 2304,
      "EM": 2305,
      "yr": 2306,
      "Ġview": 2307,
      "Ġpay": 2308,
      "Ġresults": 2309,
      "omen": 2310,
      "Ġcle": 2311,
      "oss": 2312,
      "85": 2313,
      "flu": 2314,
      "ĠAN": 2315,
      "arb": 2316,
      "Ġcette": 2317,
      "Ġcou": 2318,
      "ĠÎ´": 2319,
      "ero": 2320,
      "wh": 2321,
      "********": 2322,
      "ohn": 2323,
      "Ġtim": 2324,
      "ĠÃª": 2325,
      "ified": 2326,
      "Ġport": 2327,
      "Ġten": 2328,
      "Ġtechn": 2329,
      "umm": 2330,
      "ccess": 2331,
      "Ġinclude": 2332,
      "idad": 2333,
      "ension": 2334,
      "ĠIs": 2335,
      "def": 2336,
      "Ġ\\": 2337,
      "ĠBr": 2338,
      "Ġbeh": 2339,
      "ĠCommission": 2340,
      "à¥į": 2341,
      "ĠÑĥ": 2342,
      "Ïİ": 2343,
      "ÐºÐ°": 2344,
      "Ġstat": 2345,
      "arch": 2346,
      "ĠThere": 2347,
      "Ġprom": 2348,
      "Ġhealth": 2349,
      "ving": 2350,
      "Ġdoc": 2351,
      "OT": 2352,
      "ury": 2353,
      "Ġlife": 2354,
      "05": 2355,
      "sch": 2356,
      "ĠâĪ": 2357,
      "ku": 2358,
      "Ġagainst": 2359,
      "ĠBut": 2360,
      "Ġ23": 2361,
      "OS": 2362,
      "Ġwhe": 2363,
      "eder": 2364,
      "elt": 2365,
      "AD": 2366,
      "Ġanti": 2367,
      "US": 2368,
      "ĠAt": 2369,
      "raw": 2370,
      "Ġplay": 2371,
      "Ġless": 2372,
      "urg": 2373,
      "Ġsever": 2374,
      "Ġeen": 2375,
      "Ð¾ÑĢ": 2376,
      "Ġals": 2377,
      "Ġaus": 2378,
      "iver": 2379,
      "ÃŃa": 2380,
      "Ġconditions": 2381,
      "Ġcompris": 2382,
      "Ġrepresent": 2383,
      "Ġabove": 2384,
      "Ġces": 2385,
      "ably": 2386,
      "CT": 2387,
      "Ġpub": 2388,
      "ĸł": 2389,
      "play": 2390,
      "ĠGe": 2391,
      "utions": 2392,
      "ĠCol": 2393,
      "Ġanother": 2394,
      "ils": 2395,
      "rain": 2396,
      "95": 2397,
      "ĠÄį": 2398,
      "UL": 2399,
      "zi": 2400,
      "Ġvarious": 2401,
      "Ã¹": 2402,
      "67": 2403,
      "Ġshall": 2404,
      "Ġsmall": 2405,
      "Î±ÏĦ": 2406,
      "ĠBl": 2407,
      "Ġworld": 2408,
      "Ġmais": 2409,
      "88": 2410,
      "Ġquestion": 2411,
      "Ġprovide": 2412,
      "Ġmight": 2413,
      "idence": 2414,
      "Ġgre": 2415,
      "try": 2416,
      "itive": 2417,
      "ĠprÃ©s": 2418,
      "add": 2419,
      "ĠDie": 2420,
      "jo": 2421,
      "Ġprovided": 2422,
      "Ġaccording": 2423,
      "Ġemploy": 2424,
      "ĠÂ©": 2425,
      "ources": 2426,
      "ãĢĤ": 2427,
      "www": 2428,
      "Ġì": 2429,
      "Ġmor": 2430,
      "Ġidentif": 2431,
      "abor": 2432,
      "isc": 2433,
      "UT": 2434,
      "ÑĨÐ¸": 2435,
      "respond": 2436,
      "Ġimpro": 2437,
      "CH": 2438,
      "pend": 2439,
      "UE": 2440,
      "à§": 2441,
      "Ġsus": 2442,
      "Ġsurface": 2443,
      "ides": 2444,
      "AG": 2445,
      "olution": 2446,
      "arr": 2447,
      "ually": 2448,
      "jet": 2449,
      "iones": 2450,
      "ering": 2451,
      "pa": 2452,
      "Ġdistrib": 2453,
      "Ġang": 2454,
      "Ġexist": 2455,
      "Ġorig": 2456,
      "Ġmeans": 2457,
      "ency": 2458,
      "ĠprÃ©": 2459,
      "Ġhelp": 2460,
      "duct": 2461,
      "ception": 2462,
      "Ġiz": 2463,
      "Ġgiven": 2464,
      "ando": 2465,
      "Ġindividual": 2466,
      "Com": 2467,
      "Ġcharacter": 2468,
      "55": 2469,
      "ING": 2470,
      "Ġtit": 2471,
      "ecti": 2472,
      "Ġbest": 2473,
      "Ġcel": 2474,
      "sel": 2475,
      "Ġleur": 2476,
      "Ġpropos": 2477,
      "Ġproper": 2478,
      "ĠBo": 2479,
      "Ġobserv": 2480,
      "Ġchild": 2481,
      "Ġshown": 2482,
      "Ġlast": 2483,
      "ĠÐ¾ÑĤ": 2484,
      "Ġtyp": 2485,
      "ries": 2486,
      "aient": 2487,
      "Ġspe": 2488,
      "48": 2489,
      "yt": 2490,
      "ĠÃªtre": 2491,
      "Ã³w": 2492,
      "Ä±": 2493,
      "sc": 2494,
      "Ġ=>": 2495,
      "igure": 2496,
      "Ġut": 2497,
      "Ãªme": 2498,
      "Ad": 2499,
      "áĢ": 2500,
      "leg": 2501,
      "Ġenti": 2502,
      "Ġmulti": 2503,
      "Ġdri": 2504,
      "Ġsocial": 2505,
      "Ġses": 2506,
      "Ġsignal": 2507,
      "47": 2508,
      "iam": 2509,
      "Ġeine": 2510,
      "Ġobtain": 2511,
      "ware": 2512,
      "Type": 2513,
      "Ġvir": 2514,
      "Ġbusiness": 2515,
      "ĠFran": 2516,
      "aff": 2517,
      "uted": 2518,
      "ĠThese": 2519,
      "Ø©": 2520,
      "lec": 2521,
      "ĠÙħ": 2522,
      "Res": 2523,
      "Ø¹": 2524,
      "ĠĠĠĠĠĠĠĠĠĠĠĠĠĠĠĠĠĠĠĠĠĠĠĠĠĠĠĠĠĠĠĠ": 2525,
      "Ġinte": 2526,
      "iments": 2527,
      "ĠApp": 2528,
      "ĠTHE": 2529,
      "Ġcompon": 2530,
      "CE": 2531,
      "Ġcontrib": 2532,
      "ÈĻ": 2533,
      "ĠAmer": 2534,
      "68": 2535,
      "mp": 2536,
      "Ġuser": 2537,
      "Ġunit": 2538,
      "Ġju": 2539,
      "ĠAll": 2540,
      "ito": 2541,
      "Ġfait": 2542,
      "},": 2543,
      "Ġutil": 2544,
      "Ġnorm": 2545,
      "cht": 2546,
      "It": 2547,
      "this": 2548,
      "Ã©ri": 2549,
      "vis": 2550,
      "×¨": 2551,
      "Ġdispos": 2552,
      "ï¼Į": 2553,
      "Õ¡": 2554,
      "ending": 2555,
      "Ġfield": 2556,
      "ĠAf": 2557,
      "IR": 2558,
      "Ġaccess": 2559,
      "Ġcommunic": 2560,
      "ails": 2561,
      "NA": 2562,
      "Ġunderstand": 2563,
      "Ġq": 2564,
      "Ġinvol": 2565,
      "Ġcur": 2566,
      "ĠBy": 2567,
      "ĠÃ®n": 2568,
      "Ġdescribed": 2569,
      "ournal": 2570,
      "Ġservice": 2571,
      "date": 2572,
      "ots": 2573,
      "ĉĉĉ": 2574,
      "Ġsal": 2575,
      "Ġlarge": 2576,
      "ey": 2577,
      "Ġrespons": 2578,
      "ask": 2579,
      "Ġmal": 2580,
      "Ã¨res": 2581,
      "zn": 2582,
      "Ġnicht": 2583,
      "Ġmer": 2584,
      "Ġregion": 2585,
      "Î²": 2586,
      "oi": 2587,
      "plement": 2588,
      "49": 2589,
      "roup": 2590,
      "Ġtreat": 2591,
      "Ġmus": 2592,
      "ee": 2593,
      "IV": 2594,
      "ca": 2595,
      "ha": 2596,
      "ï»": 2597,
      "ĠÑĩ": 2598,
      "da": 2599,
      "Ġperm": 2600,
      "ĠAg": 2601,
      "Ġtake": 2602,
      "aint": 2603,
      "Ġcomme": 2604,
      "ÐµÑĤ": 2605,
      "ĠNe": 2606,
      "Ġcontain": 2607,
      "Ġinvention": 2608,
      "Ġsing": 2609,
      "Ġside": 2610,
      "Ġwrit": 2611,
      "data": 2612,
      "ying": 2613,
      "ĠTe": 2614,
      "ison": 2615,
      "Ġcu": 2616,
      "Ġlog": 2617,
      "Î¹Î±": 2618,
      "Ġcult": 2619,
      "ires": 2620,
      "Ġvous": 2621,
      "ÏĢÎ¿": 2622,
      "mod": 2623,
      "ules": 2624,
      "ilar": 2625,
      "ope": 2626,
      "Ġ45": 2627,
      "ĠSec": 2628,
      "Ġgeneral": 2629,
      "Ã©l": 2630,
      "fin": 2631,
      "Ġpress": 2632,
      "duced": 2633,
      "Ð½Ñĭ": 2634,
      "Ġlang": 2635,
      "ither": 2636,
      "Ġsubject": 2637,
      "Ġnecess": 2638,
      "Ġ==": 2639,
      "jen": 2640,
      "ml": 2641,
      "ara": 2642,
      "66": 2643,
      "ĠCO": 2644,
      "yc": 2645,
      "Ġstart": 2646,
      "Ġlocal": 2647,
      "ras": 2648,
      "endant": 2649,
      "ects": 2650,
      "Ġgrow": 2651,
      "UN": 2652,
      "vironment": 2653,
      "Ġamong": 2654,
      "hib": 2655,
      "77": 2656,
      "ava": 2657,
      "Ġcommon": 2658,
      "ĠÐ°": 2659,
      "time": 2660,
      "rag": 2661,
      "ustom": 2662,
      "Ġservices": 2663,
      "Ġhuman": 2664,
      "Ġfran": 2665,
      "Ġsuper": 2666,
      "Ġconcern": 2667,
      "Ġdies": 2668,
      "lor": 2669,
      "required": 2670,
      "ological": 2671,
      "Ġcells": 2672,
      "Ġsich": 2673,
      "Ġlayer": 2674,
      "Ġregard": 2675,
      "Ġoffic": 2676,
      "IM": 2677,
      "Ġens": 2678,
      "ida": 2679,
      "amb": 2680,
      "ĠStates": 2681,
      "Ġcorrespond": 2682,
      "ĠÐ¿Ð¾": 2683,
      "Ġlie": 2684,
      "Ġjus": 2685,
      "hn": 2686,
      "rop": 2687,
      "Ġportion": 2688,
      "\">": 2689,
      "ĠThey": 2690,
      "Ð»ÑĮ": 2691,
      "Ġauthor": 2692,
      "ĠMan": 2693,
      "Ġdou": 2694,
      "Ġbase": 2695,
      "bt": 2696,
      "oph": 2697,
      "Ġarg": 2698,
      "Ġiniti": 2699,
      "aine": 2700,
      "To": 2701,
      "Ġchange": 2702,
      "DE": 2703,
      "Ġart": 2704,
      "chan": 2705,
      "ita": 2706,
      "ints": 2707,
      "abel": 2708,
      "100": 2709,
      "Ġlui": 2710,
      "Ġsw": 2711,
      ".;": 2712,
      "uff": 2713,
      "ios": 2714,
      "äº": 2715,
      "uct": 2716,
      "Ġprincip": 2717,
      "Ġplan": 2718,
      "ious": 2719,
      "Al": 2720,
      "urch": 2721,
      "Ġsz": 2722,
      "array": 2723,
      "ĠEngl": 2724,
      "89": 2725,
      "ÑĢÐ¾": 2726,
      "ĠHowever": 2727,
      "Ġenerg": 2728,
      "Val": 2729,
      "Ġmem": 2730,
      "69": 2731,
      "Ġthink": 2732,
      "Ġcaus": 2733,
      "Ġmaj": 2734,
      "Ġwherein": 2735,
      "\")": 2736,
      "Ġtotal": 2737,
      "lied": 2738,
      "Ġarr": 2739,
      "ĠJe": 2740,
      "Ð¾Ð¹": 2741,
      "Ã¶n": 2742,
      "oint": 2743,
      "Ġresearch": 2744,
      "vious": 2745,
      "Ġhead": 2746,
      "return": 2747,
      "ico": 2748,
      "alse": 2749,
      "len": 2750,
      "As": 2751,
      "ciÃ³n": 2752,
      "Ð»Ðµ": 2753,
      "Ġlook": 2754,
      "Ġimportant": 2755,
      "AB": 2756,
      "Ġimm": 2757,
      "Ġseg": 2758,
      "Ġcourt": 2759,
      "essage": 2760,
      "Ã¤t": 2761,
      "ling": 2762,
      "Ġ35": 2763,
      "Ġlow": 2764,
      "comp": 2765,
      "let": 2766,
      "Ġ60": 2767,
      "pper": 2768,
      "uid": 2769,
      "Ġfi": 2770,
      "Ġoch": 2771,
      "Ġtrue": 2772,
      "wa": 2773,
      "Ġpap": 2774,
      "fi": 2775,
      "Cl": 2776,
      "Ġfu": 2777,
      "Ġmi": 2778,
      "Ð²Ð¸": 2779,
      "empl": 2780,
      "ĠAc": 2781,
      "icro": 2782,
      "ania": 2783,
      "ault": 2784,
      "Ġpatients": 2785,
      "Ġcos": 2786,
      "Ġanalysis": 2787,
      "æľ": 2788,
      "Ã©m": 2789,
      "iner": 2790,
      "Ġmes": 2791,
      "Ġobject": 2792,
      "sequ": 2793,
      ".-": 2794,
      "acy": 2795,
      "Ġavail": 2796,
      "Ġmention": 2797,
      "Ġbody": 2798,
      "atter": 2799,
      "Ġsuccess": 2800,
      "ĠGr": 2801,
      "Ġtax": 2802,
      "off": 2803,
      "ĠCor": 2804,
      "ams": 2805,
      "Ġpath": 2806,
      "ceed": 2807,
      "Ġcome": 2808,
      "Ġappar": 2809,
      "ĠCons": 2810,
      "Ġ2013": 2811,
      "Ġabs": 2812,
      "Ġrecord": 2813,
      "Ġtout": 2814,
      "eld": 2815,
      "ories": 2816,
      "86": 2817,
      "ãĢģ": 2818,
      "Ġbeg": 2819,
      "icy": 2820,
      "Ġmag": 2821,
      "Ġcompos": 2822,
      "ĠCar": 2823,
      "orth": 2824,
      "Ġphys": 2825,
      "ĠÑĤ": 2826,
      "atory": 2827,
      "rite": 2828,
      "uments": 2829,
      "iu": 2830,
      "Ġmis": 2831,
      "Ġplac": 2832,
      "ards": 2833,
      "Ġgovern": 2834,
      "ittle": 2835,
      "Ġord": 2836,
      "Ġeuro": 2837,
      "Ġcomput": 2838,
      "Ġpossible": 2839,
      "Ġdevelopment": 2840,
      "Par": 2841,
      "à±": 2842,
      "Ġfinal": 2843,
      "ised": 2844,
      "ationship": 2845,
      "Ġur": 2846,
      "ones": 2847,
      "46": 2848,
      "03": 2849,
      "ought": 2850,
      "Ð´Ð°": 2851,
      "Ġimage": 2852,
      "ãģ®": 2853,
      "Ġvoor": 2854,
      "Ġassociated": 2855,
      "ump": 2856,
      "Ġdeux": 2857,
      "Ġ..": 2858,
      "Le": 2859,
      "osp": 2860,
      "ager": 2861,
      "ĠÐµ": 2862,
      "hold": 2863,
      "87": 2864,
      "Ġamount": 2865,
      "Ġmarket": 2866,
      "String": 2867,
      "ĠÐ½Ðµ": 2868,
      "ald": 2869,
      "olo": 2870,
      "Ġcontr": 2871,
      "Ġconfig": 2872,
      "Ġapplication": 2873,
      "cs": 2874,
      "ĠrÃ©s": 2875,
      "Ġfinancial": 2876,
      "Ġjud": 2877,
      "Ġflow": 2878,
      "Ġbuild": 2879,
      "06": 2880,
      "Ġhat": 2881,
      "acc": 2882,
      "Ġproced": 2883,
      "ua": 2884,
      "Ġelse": 2885,
      "Ã»": 2886,
      "Ġwhether": 2887,
      "ĠCour": 2888,
      "ĠÙĪ": 2889,
      "wards": 2890,
      "Ġdiscuss": 2891,
      "Î½ÏĦ": 2892,
      "SE": 2893,
      "Ġintern": 2894,
      "outh": 2895,
      "itted": 2896,
      "Ġregul": 2897,
      "Ġko": 2898,
      "ĠDr": 2899,
      "Ġsize": 2900,
      "Ġproble": 2901,
      "ischen": 2902,
      "ky": 2903,
      "ĠRo": 2904,
      "ĠJohn": 2905,
      "Ġsem": 2906,
      "Ġadj": 2907,
      "Ġtop": 2908,
      "Ġanim": 2909,
      "ÏĥÏĦ": 2910,
      "zed": 2911,
      "ydro": 2912,
      "xy": 2913,
      "ification": 2914,
      "ids": 2915,
      "ache": 2916,
      "ido": 2917,
      "Ġaction": 2918,
      "aring": 2919,
      "ĠPol": 2920,
      "Ġrequire": 2921,
      "Ġmean": 2922,
      "ically": 2923,
      "Ġbien": 2924,
      "cn": 2925,
      "aft": 2926,
      "ĠST": 2927,
      "Ġbenef": 2928,
      "Ġknown": 2929,
      "itÃ©s": 2930,
      "Ġinves": 2931,
      "irm": 2932,
      "Ġkey": 2933,
      "Ġrate": 2934,
      "Ġsubs": 2935,
      "formation": 2936,
      "oud": 2937,
      "nÃ©": 2938,
      "\"]": 2939,
      "alf": 2940,
      "////": 2941,
      "ried": 2942,
      "Ġren": 2943,
      "bs": 2944,
      "amento": 2945,
      "Ġwant": 2946,
      "79": 2947,
      "kn": 2948,
      "rt": 2949,
      "xim": 2950,
      "42": 2951,
      "ĠÅ": 2952,
      "Ġtransm": 2953,
      "ored": 2954,
      "Ð¾Ð½": 2955,
      "Ġembodiment": 2956,
      "amm": 2957,
      "lie": 2958,
      "×Ķ": 2959,
      "EU": 2960,
      "ĠHer": 2961,
      "×ľ": 2962,
      "ĠMed": 2963,
      "ists": 2964,
      "Ġparticip": 2965,
      "chni": 2966,
      "RI": 2967,
      "oms": 2968,
      "Ġcalled": 2969,
      "iversity": 2970,
      "Ġstill": 2971,
      "ĠĠĠĠĠĠ": 2972,
      "Ġaccount": 2973,
      "Ġsection": 2974,
      "iction": 2975,
      "cep": 2976,
      "ĠfÃ¶r": 2977,
      "Ġbar": 2978,
      "Ġrequired": 2979,
      "iem": 2980,
      "åħ": 2981,
      "Ġland": 2982,
      "del": 2983,
      "Ġdest": 2984,
      "ÐºÐ¸": 2985,
      "Î¯Î±": 2986,
      "ĠUnited": 2987,
      "Ġaz": 2988,
      "ĠFrance": 2989,
      "Ġtemper": 2990,
      "à¤°": 2991,
      "unction": 2992,
      "Ġ2014": 2993,
      "Ã½ch": 2994,
      "ises": 2995,
      "ius": 2996,
      "àµ": 2997,
      "ĠEU": 2998,
      "Ġbei": 2999,
      "Ġà¦": 3000,
      "41": 3001,
      "Ġbie": 3002,
      "ways": 3003,
      "ĠSc": 3004,
      "Ġsett": 3005,
      "Ġalong": 3006,
      "Ġnach": 3007,
      "fig": 3008,
      "struction": 3009,
      "Ġseveral": 3010,
      "Ġaddress": 3011,
      "ĠYou": 3012,
      "ogn": 3013,
      "Ġlimit": 3014,
      "thers": 3015,
      "Ã¡l": 3016,
      "actions": 3017,
      "Õ¡Õ": 3018,
      "ker": 3019,
      "aging": 3020,
      "ĠÎ¿": 3021,
      "ols": 3022,
      "fr": 3023,
      "Ġdeg": 3024,
      "ift": 3025,
      "Ġarea": 3026,
      "ĠDes": 3027,
      "over": 3028,
      "CC": 3029,
      "Ġ{\"": 3030,
      "ĠSu": 3031,
      "oper": 3032,
      "ïº": 3033,
      "Ġrelev": 3034,
      "Ġnov": 3035,
      "Ġaud": 3036,
      "ĠmÃªme": 3037,
      "à¹": 3038,
      "43": 3039,
      "Ġcoll": 3040,
      "Ġrun": 3041,
      "ĠdÃ©c": 3042,
      "Ġestim": 3043,
      "lin": 3044,
      "2023": 3045,
      "Ġincludes": 3046,
      "ouv": 3047,
      "Ġstre": 3048,
      "Ġsubst": 3049,
      "Ġlib": 3050,
      "amente": 3051,
      "ĠgÃ©n": 3052,
      "Ġalle": 3053,
      "Ġexc": 3054,
      "Ġdiv": 3055,
      "king": 3056,
      "enc": 3057,
      "ÏĥÎ·": 3058,
      "rav": 3059,
      "Ġsimilar": 3060,
      "Ã©rie": 3061,
      "Ġprote": 3062,
      "Ð¼Ð¸": 3063,
      "ience": 3064,
      "Ġfar": 3065,
      "Î·Î½": 3066,
      "Ġstructure": 3067,
      "ĠÃ¼ber": 3068,
      "Ġaround": 3069,
      "http": 3070,
      "Ġqual": 3071,
      "Ġsci": 3072,
      "ede": 3073,
      "aps": 3074,
      "embre": 3075,
      "ĠPer": 3076,
      "Ġdella": 3077,
      "Ġnature": 3078,
      "lu": 3079,
      "ĠMay": 3080,
      "aa": 3081,
      "Ġ00": 3082,
      "Ġrespect": 3083,
      "itte": 3084,
      "Ġfri": 3085,
      "zt": 3086,
      "nie": 3087,
      "Ġunb": 3088,
      "Ġcomplex": 3089,
      "entes": 3090,
      "aster": 3091,
      "ĠParis": 3092,
      "Ġoffer": 3093,
      "ader": 3094,
      "las": 3095,
      "Ġetc": 3096,
      "ĠÐ¡": 3097,
      "azione": 3098,
      "Cont": 3099,
      "Ġges": 3100,
      "Ġlower": 3101,
      "Ġestabl": 3102,
      "Ġfix": 3103,
      "Ġprefer": 3104,
      "vol": 3105,
      "Ġfund": 3106,
      "âĢ¦": 3107,
      "ĠâĢĺ": 3108,
      "Ġhtt": 3109,
      "Ġtil": 3110,
      "Ġdonn": 3111,
      "obal": 3112,
      "Ġwel": 3113,
      "ĠWhen": 3114,
      "tor": 3115,
      "Ġcop": 3116,
      ".\",": 3117,
      "Ġide": 3118,
      "ocus": 3119,
      "Ġmillion": 3120,
      "Ġinput": 3121,
      "Ġinflu": 3122,
      "ares": 3123,
      "ley": 3124,
      "enden": 3125,
      "Ġdate": 3126,
      "Ġ`": 3127,
      "ĠPre": 3128,
      "Ġdig": 3129,
      "à¥ĩ": 3130,
      "Ġparam": 3131,
      "Ġrelated": 3132,
      "imum": 3133,
      "ectively": 3134,
      "Ġair": 3135,
      "ĠGoogle": 3136,
      "Ġprob": 3137,
      "erson": 3138,
      "Ġcount": 3139,
      "ÑĢÐµÐ´": 3140,
      "Ġdont": 3141,
      "atures": 3142,
      "Ġpeut": 3143,
      "98": 3144,
      "Ġavailable": 3145,
      "ias": 3146,
      "egen": 3147,
      "Ġ2020": 3148,
      "ican": 3149,
      "order": 3150,
      "iste": 3151,
      "76": 3152,
      "Ġvalues": 3153,
      "Ġsym": 3154,
      "Ġfore": 3155,
      "rs": 3156,
      "anu": 3157,
      "Ġnetwork": 3158,
      "Ã©tÃ©": 3159,
      "zo": 3160,
      "Ġkind": 3161,
      "ĠÑĢÐ°": 3162,
      "Ġeconom": 3163,
      "Ġimplement": 3164,
      "ĠState": 3165,
      "Ġvoid": 3166,
      "opp": 3167,
      "Ġcalcul": 3168,
      "ĠÃº": 3169,
      "Ġconstit": 3170,
      "ĠØ¨": 3171,
      "bar": 3172,
      "à³": 3173,
      "div": 3174,
      "Ġproject": 3175,
      "Ġtarget": 3176,
      "ÏģÎ¹": 3177,
      "tention": 3178,
      "Ġnu": 3179,
      "bert": 3180,
      "Ġlittle": 3181,
      "Ġadminist": 3182,
      "Ġmeet": 3183,
      "ush": 3184,
      "Ġterms": 3185,
      "uth": 3186,
      "ĠÅ¡": 3187,
      "atal": 3188,
      "redit": 3189,
      "ĠThat": 3190,
      "ena": 3191,
      "ĠFin": 3192,
      "Ġmonth": 3193,
      "Ġfree": 3194,
      "Ġsay": 3195,
      "nder": 3196,
      "ÂŃ": 3197,
      "gt": 3198,
      "Data": 3199,
      "FIG": 3200,
      "ony": 3201,
      "ained": 3202,
      "Å«": 3203,
      "igher": 3204,
      "ungs": 3205,
      "ught": 3206,
      "×Ĳ": 3207,
      "Ġfile": 3208,
      "Ġmax": 3209,
      "Ġprivate": 3210,
      "Ġple": 3211,
      "rie": 3212,
      "Ob": 3213,
      "ÑĢÑĥ": 3214,
      "oj": 3215,
      "Ġ×Ķ": 3216,
      "Ġbetter": 3217,
      "Ġsource": 3218,
      "Ġsince": 3219,
      "Ġcer": 3220,
      "ĠSte": 3221,
      "Ġmu": 3222,
      "Ġturn": 3223,
      "Ġrisk": 3224,
      "ora": 3225,
      "och": 3226,
      "Ġmach": 3227,
      "nen": 3228,
      "tra": 3229,
      "zj": 3230,
      "Ġsequ": 3231,
      "ĠÎºÎ±Î¹": 3232,
      "inen": 3233,
      "antes": 3234,
      "Ġcri": 3235,
      "84": 3236,
      "eme": 3237,
      "Ġput": 3238,
      "uli": 3239,
      "Ġradi": 3240,
      "Ġdise": 3241,
      "ĠCont": 3242,
      "SS": 3243,
      "onse": 3244,
      "Ġfer": 3245,
      "92": 3246,
      "Ġnat": 3247,
      "sub": 3248,
      "åı": 3249,
      "Ġtill": 3250,
      "ĠDire": 3251,
      "osti": 3252,
      "Ġapproach": 3253,
      "iques": 3254,
      "Ġenvironment": 3255,
      "ery": 3256,
      "ĠEst": 3257,
      "List": 3258,
      "Ġhom": 3259,
      "Tr": 3260,
      "ĠÏĥÏĦ": 3261,
      "Ġsie": 3262,
      "lection": 3263,
      "Ġfuture": 3264,
      "Ġtreatment": 3265,
      ".'": 3266,
      "Ġmember": 3267,
      "iff": 3268,
      "Ġred": 3269,
      "Im": 3270,
      "pose": 3271,
      "ama": 3272,
      "inc": 3273,
      "bu": 3274,
      "with": 3275,
      "97": 3276,
      "rÃ©": 3277,
      "Ġagre": 3278,
      "Ġcover": 3279,
      "96": 3280,
      "Ġappear": 3281,
      "ture": 3282,
      "Ġcontent": 3283,
      "Ġpu": 3284,
      "Ġvor": 3285,
      "cover": 3286,
      "Ã«": 3287,
      "Ġspecial": 3288,
      "lag": 3289,
      "Ġcommer": 3290,
      "ĠĠĠĠĠĠĠĠĠĠĠĠĠ": 3291,
      "Ġchanges": 3292,
      "Ġpotential": 3293,
      "ye": 3294,
      "iqu": 3295,
      "param": 3296,
      "OC": 3297,
      "Ġnav": 3298,
      "rict": 3299,
      "ĠBer": 3300,
      "var": 3301,
      "Ġfrequ": 3302,
      "description": 3303,
      "ĠMa": 3304,
      "Ġoften": 3305,
      "ima": 3306,
      "Ġleft": 3307,
      "ĠMon": 3308,
      "olar": 3309,
      "eller": 3310,
      "Ġelement": 3311,
      "Ġsou": 3312,
      "new": 3313,
      "ference": 3314,
      "imo": 3315,
      "Ġchall": 3316,
      "ional": 3317,
      "num": 3318,
      "Ð¼Ð°": 3319,
      "Ġ2015": 3320,
      "Ġschool": 3321,
      "ĠDecember": 3322,
      "Ġrelati": 3323,
      "Ġinvest": 3324,
      "Ġevent": 3325,
      "iden": 3326,
      "Ġcases": 3327,
      "Ġold": 3328,
      "ights": 3329,
      "Ġasp": 3330,
      "Ġmechan": 3331,
      "eta": 3332,
      "Ġfav": 3333,
      "ites": 3334,
      "Ġobj": 3335,
      "clude": 3336,
      "Ġtechni": 3337,
      "Ġquel": 3338,
      "ÈĻi": 3339,
      "gether": 3340,
      "Ġhold": 3341,
      "ney": 3342,
      "unic": 3343,
      "56": 3344,
      "Ùĥ": 3345,
      "Ġdos": 3346,
      "Ġtogether": 3347,
      "Ã¨me": 3348,
      "const": 3349,
      "This": 3350,
      "cript": 3351,
      "log": 3352,
      "07": 3353,
      "08": 3354,
      "ĠAug": 3355,
      "Ġ</": 3356,
      "ĠÃ¤": 3357,
      "ban": 3358,
      "Ġdim": 3359,
      "Ġsepar": 3360,
      "Ġhome": 3361,
      "Ġmanagement": 3362,
      "Ø§ÙĦ": 3363,
      "ns": 3364,
      "ators": 3365,
      "Ġnext": 3366,
      "ĠÕ": 3367,
      "Ġ2012": 3368,
      "ctions": 3369,
      "OP": 3370,
      "Ð¾Ð±": 3371,
      "eneral": 3372,
      "Ġlic": 3373,
      "Ġsent": 3374,
      "Ġpun": 3375,
      "Ġsous": 3376,
      "Ġtrav": 3377,
      "Ġ2016": 3378,
      "ogen": 3379,
      "Ġuntil": 3380,
      "Ġfol": 3381,
      "Ġtoo": 3382,
      "char": 3383,
      "Ġsystems": 3384,
      "ira": 3385,
      "Ġcost": 3386,
      "Ġrequest": 3387,
      "ÅĦ": 3388,
      "idth": 3389,
      "inary": 3390,
      "ula": 3391,
      "Ġneg": 3392,
      "hem": 3393,
      "Ġcustom": 3394,
      "eters": 3395,
      "Ġcomo": 3396,
      "osed": 3397,
      "Å¿t": 3398,
      "Ġ||": 3399,
      "Ġeval": 3400,
      "back": 3401,
      "Ġembodiments": 3402,
      "uage": 3403,
      "ATION": 3404,
      "Ġimpact": 3405,
      "Î½Î¿": 3406,
      "Ġrep": 3407,
      "ĠCent": 3408,
      "Ġsche": 3409,
      "Ġprior": 3410,
      "Ġdays": 3411,
      "ĠEd": 3412,
      "ĠPa": 3413,
      "itation": 3414,
      "Ġwerden": 3415,
      "fÃ©r": 3416,
      "tu": 3417,
      "Ġexec": 3418,
      "ĠGod": 3419,
      "Ġrange": 3420,
      "OD": 3421,
      "rem": 3422,
      "Ø§Ø": 3423,
      "ece": 3424,
      "Ġinstit": 3425,
      "ÙĤ": 3426,
      "Ġprop": 3427,
      "Ġdisplay": 3428,
      "ilt": 3429,
      "inde": 3430,
      "Ġsingle": 3431,
      "Ġopp": 3432,
      "oks": 3433,
      "medi": 3434,
      "Ġincrease": 3435,
      "Ġcause": 3436,
      "La": 3437,
      "Ġtaken": 3438,
      "esse": 3439,
      "âĪ": 3440,
      "Ġhigher": 3441,
      "Ġcondition": 3442,
      "asing": 3443,
      "\");": 3444,
      "ÑģÐ¸": 3445,
      "Ġtu": 3446,
      "omis": 3447,
      "uly": 3448,
      "Ġothers": 3449,
      "ala": 3450,
      "Ġauch": 3451,
      "Ġstock": 3452,
      "94": 3453,
      "Ġcho": 3454,
      "Ġeduc": 3455,
      "ìĿ": 3456,
      "Ġloss": 3457,
      "72": 3458,
      "ingen": 3459,
      "ĠÏĦÎ¿Ïħ": 3460,
      "Ġpeu": 3461,
      "loc": 3462,
      "ĠChar": 3463,
      "Ġka": 3464,
      "urity": 3465,
      "Ġoutput": 3466,
      "Ġmix": 3467,
      "class": 3468,
      "Ġreceived": 3469,
      "ged": 3470,
      "ista": 3471,
      "ĠÐ¿ÑĢÐ¸": 3472,
      "emp": 3473,
      "Ġreference": 3474,
      "oung": 3475,
      "93": 3476,
      "quest": 3477,
      "83": 3478,
      "Ġá": 3479,
      "'re": 3480,
      "ÃŃt": 3481,
      "Ġoder": 3482,
      "Ð°Ð½Ð¸": 3483,
      "Ġ[\"": 3484,
      "Ġreason": 3485,
      "Ġthird": 3486,
      "Ġacid": 3487,
      "orts": 3488,
      "Ġmom": 3489,
      "Ø§ÙĨ": 3490,
      "hal": 3491,
      "^^": 3492,
      "Ġeither": 3493,
      "74": 3494,
      "ered": 3495,
      "Ġul": 3496,
      "à¯į": 3497,
      "82": 3498,
      "EG": 3499,
      "ÃŃs": 3500,
      "izing": 3501,
      "uel": 3502,
      "SA": 3503,
      "Ġprevious": 3504,
      "Ġzij": 3505,
      "ani": 3506,
      "Ġ2011": 3507,
      "value": 3508,
      "ĠÏĦÎ·ÏĤ": 3509,
      "Ġelle": 3510,
      "Ġtw": 3511,
      "Ġfull": 3512,
      "istance": 3513,
      "Ġsil": 3514,
      "ĠrÃ©g": 3515,
      "tie": 3516,
      "Ġresponse": 3517,
      "ĠEm": 3518,
      "ĠAND": 3519,
      "Ġjo": 3520,
      "Ġjour": 3521,
      "Ġenergy": 3522,
      "Ġ2018": 3523,
      "arning": 3524,
      "71": 3525,
      "Ġdiffic": 3526,
      "ono": 3527,
      "ince": 3528,
      "lying": 3529,
      "ÑģÑı": 3530,
      "ĠnÃ©": 3531,
      "Ġnear": 3532,
      "ÏģÎ±": 3533,
      "Ġgar": 3534,
      "isl": 3535,
      "Ġ2010": 3536,
      "Å¯": 3537,
      "ĠCal": 3538,
      "teur": 3539,
      "')": 3540,
      "Ġautor": 3541,
      "Ġstrateg": 3542,
      "nt": 3543,
      "hic": 3544,
      "Ġ///": 3545,
      "Ġmeasure": 3546,
      "Ġsyn": 3547,
      "Ġgive": 3548,
      "yle": 3549,
      "ening": 3550,
      "itch": 3551,
      "oli": 3552,
      "ĠCan": 3553,
      "ische": 3554,
      "Ġcontract": 3555,
      "ĠGu": 3556,
      "Ġstring": 3557,
      "Ġtimes": 3558,
      "ĠRev": 3559,
      "Ġvia": 3560,
      "Ġintro": 3561,
      "ĠÈĻi": 3562,
      "Ġcountry": 3563,
      "endre": 3564,
      "aten": 3565,
      "oma": 3566,
      "Ġperformance": 3567,
      "iten": 3568,
      "Ġadop": 3569,
      "asc": 3570,
      "ref": 3571,
      "61": 3572,
      "Er": 3573,
      "Ġdirection": 3574,
      "ĠIns": 3575,
      "isions": 3576,
      "ĠVal": 3577,
      "Ġdocument": 3578,
      "ĠPe": 3579,
      "Ġtous": 3580,
      "ĠNov": 3581,
      "Ġ2021": 3582,
      "Ġmethods": 3583,
      "53": 3584,
      "ĠÑģÐµ": 3585,
      "Ġsans": 3586,
      "å¤": 3587,
      "73": 3588,
      "................................": 3589,
      "ĠWill": 3590,
      "Ġcity": 3591,
      "Ð¾Ð³Ð¾": 3592,
      "Ġespec": 3593,
      "81": 3594,
      "Ġfail": 3595,
      "Ġcode": 3596,
      "rap": 3597,
      "tio": 3598,
      "ĠSi": 3599,
      "Ġoblig": 3600,
      "Ġhard": 3601,
      "dis": 3602,
      "Ġshort": 3603,
      "view": 3604,
      "Ġmajor": 3605,
      "su": 3606,
      "Col": 3607,
      "Ùģ": 3608,
      "Ġhistor": 3609,
      "09": 3610,
      "gy": 3611,
      "ario": 3612,
      "aking": 3613,
      "ival": 3614,
      "itÃł": 3615,
      "IP": 3616,
      "ieve": 3617,
      "ĠÎ³": 3618,
      "Ġ2009": 3619,
      "Ġach": 3620,
      "Ð²Ð¾": 3621,
      "mon": 3622,
      "ternal": 3623,
      "\":{\"": 3624,
      "Ġbis": 3625,
      "Ġ32": 3626,
      "Ġanswer": 3627,
      "62": 3628,
      "ÎµÏĦ": 3629,
      "Ġ2019": 3630,
      "tition": 3631,
      "uri": 3632,
      "Ġdurch": 3633,
      "Ġfew": 3634,
      "Ġaccord": 3635,
      "ĠâĪĴ": 3636,
      "Ð¾Ðº": 3637,
      "Ġ2017": 3638,
      "Ġstep": 3639,
      "Ġnos": 3640,
      "net": 3641,
      "ls": 3642,
      "uration": 3643,
      "pen": 3644,
      "ĠÃ©s": 3645,
      "Ġfocus": 3646,
      "Ġnie": 3647,
      "tro": 3648,
      "clusion": 3649,
      "ä»": 3650,
      "ĠĠĠĠĠĠĠĠĠĠĠĠĠĠĠĠĠĠĠĠĠĠĠĠĠĠĠ": 3651,
      "uck": 3652,
      "though": 3653,
      "Ind": 3654,
      "Ġdemand": 3655,
      "fs": 3656,
      "Ġfaire": 3657,
      "Wh": 3658,
      "Ġkon": 3659,
      "Ġcreate": 3660,
      "change": 3661,
      "ecting": 3662,
      "key": 3663,
      "insi": 3664,
      "Ġ...": 3665,
      "Ġthings": 3666,
      "ĠMin": 3667,
      "iles": 3668,
      "Ġing": 3669,
      "UM": 3670,
      "Ġih": 3671,
      "nov": 3672,
      "}}": 3673,
      "Ġcommunication": 3674,
      "Ġevidence": 3675,
      "lan": 3676,
      "util": 3677,
      "Ġrole": 3678,
      "ĠWith": 3679,
      "ÅĽci": 3680,
      "ĠÐŁ": 3681,
      "ioni": 3682,
      "Ġstrong": 3683,
      "ĠCH": 3684,
      "ÑĤÑĮ": 3685,
      "gel": 3686,
      "Ġdecl": 3687,
      "nes": 3688,
      "uts": 3689,
      "Ġrelevant": 3690,
      "å¹": 3691,
      "Î¾": 3692,
      "Ġproperty": 3693,
      "52": 3694,
      "ynam": 3695,
      "Ġaan": 3696,
      ".âĢĶ": 3697,
      "ĠNot": 3698,
      "aces": 3699,
      "ona": 3700,
      "Or": 3701,
      "ĠÃī": 3702,
      "tives": 3703,
      "63": 3704,
      "58": 3705,
      "IF": 3706,
      "Ġeffic": 3707,
      "Ä¡": 3708,
      "Ġâĸł": 3709,
      "Ġmembers": 3710,
      "fficient": 3711,
      "dom": 3712,
      "Ġalg": 3713,
      "eren": 3714,
      "ija": 3715,
      "Ġconduct": 3716,
      "ledge": 3717,
      "91": 3718,
      "ections": 3719,
      "54": 3720,
      "We": 3721,
      "Äĭ": 3722,
      "irit": 3723,
      "odes": 3724,
      "Ġeas": 3725,
      "oe": 3726,
      "Ġconsist": 3727,
      "iers": 3728,
      "ĠÂ§": 3729,
      "public": 3730,
      "load": 3731,
      "oz": 3732,
      "Ġcontroll": 3733,
      "ĠAss": 3734,
      "========": 3735,
      "ÎµÎ¯": 3736,
      "Ġproduction": 3737,
      "Ġillustr": 3738,
      "Ġzur": 3739,
      "Ġproducts": 3740,
      "Ġ2008": 3741,
      "ummary": 3742,
      "Ġmaintain": 3743,
      "ĠShe": 3744,
      "ĠÃ¨": 3745,
      "ially": 3746,
      "Ġblock": 3747,
      "endo": 3748,
      "ĠOb": 3749,
      "Ġmaking": 3750,
      "×ŀ": 3751,
      "path": 3752,
      "Ġfem": 3753,
      "quis": 3754,
      "ĠEuropean": 3755,
      "Ġjur": 3756,
      "Ġchildren": 3757,
      "alk": 3758,
      "Ġwie": 3759,
      "ĠApr": 3760,
      "ĠSystem": 3761,
      "comm": 3762,
      "mar": 3763,
      "On": 3764,
      "from": 3765,
      "Ġrelationship": 3766,
      "ĠÐĴ": 3767,
      "Ġgrand": 3768,
      "Ġsoft": 3769,
      "ÏİÎ½": 3770,
      "sz": 3771,
      "ired": 3772,
      "Ġnever": 3773,
      "Ã²": 3774,
      "Ġmentioned": 3775,
      "Ġë": 3776,
      "enne": 3777,
      "ips": 3778,
      "Ã¯": 3779,
      "Ġstor": 3780,
      "Ġ90": 3781,
      "Ġpage": 3782,
      "rist": 3783,
      "Ġincreased": 3784,
      "bit": 3785,
      "Med": 3786,
      "ije": 3787,
      "Ġhowever": 3788,
      "Ġviol": 3789,
      "aged": 3790,
      "article": 3791,
      "001": 3792,
      "apter": 3793,
      "war": 3794,
      "ĠOne": 3795,
      "Ġautom": 3796,
      "ibility": 3797,
      "oles": 3798,
      "ills": 3799,
      "elling": 3800,
      "tikel": 3801,
      "rier": 3802,
      "Ð°ÑĢ": 3803,
      "Ġdivers": 3804,
      "Ġerror": 3805,
      "ĠIII": 3806,
      "\".": 3807,
      "Ġproduc": 3808,
      "mm": 3809,
      "ĠÃ¶": 3810,
      "ĠJournal": 3811,
      "test": 3812,
      "onom": 3813,
      "trans": 3814,
      "áº": 3815,
      "Ġgas": 3816,
      "indow": 3817,
      "Ġstudies": 3818,
      "Ġconcent": 3819,
      "Ġdit": 3820,
      "Ġ80": 3821,
      "adas": 3822,
      "Ġassess": 3823,
      "position": 3824,
      "Ġfamily": 3825,
      "Ġnational": 3826,
      "ĠÐļ": 3827,
      "Ġmot": 3828,
      "dz": 3829,
      "Ġframe": 3830,
      "Ġhapp": 3831,
      "RA": 3832,
      "Ġtemperature": 3833,
      "51": 3834,
      "Ġciv": 3835,
      "cz": 3836,
      "Ġyet": 3837,
      "enses": 3838,
      "Ġfond": 3839,
      "ustri": 3840,
      "ĠInter": 3841,
      "lik": 3842,
      "prise": 3843,
      "Ġdam": 3844,
      "Ġproc": 3845,
      "ĠÐ¸Ð·": 3846,
      "oid": 3847,
      "olid": 3848,
      "auf": 3849,
      "Ġcompany": 3850,
      "come": 3851,
      "Ġerr": 3852,
      "Ġbal": 3853,
      "Ġcapital": 3854,
      "ĠMrs": 3855,
      "Ġarm": 3856,
      "Ð½Ðµ": 3857,
      "Ġnecessary": 3858,
      "Ġcourse": 3859,
      "Ġpoints": 3860,
      "ĠgÃ©nÃ©r": 3861,
      "Ġliqu": 3862,
      "Ġreview": 3863,
      "Ġsix": 3864,
      "Î¿Ïį": 3865,
      "Ġoperation": 3866,
      "Ġcontext": 3867,
      "pression": 3868,
      "Ġinj": 3869,
      "Ġgene": 3870,
      "Ġcompar": 3871,
      "Ã©ra": 3872,
      "ething": 3873,
      "Ġmind": 3874,
      "pid": 3875,
      "anz": 3876,
      "Ġphot": 3877,
      "Ġbecome": 3878,
      "ois": 3879,
      "à¤¿": 3880,
      "items": 3881,
      "Ġfalse": 3882,
      "Ġfactors": 3883,
      "gi": 3884,
      "oney": 3885,
      "Ġever": 3886,
      "Ġpattern": 3887,
      "atisf": 3888,
      "Ġpal": 3889,
      "Ġdecre": 3890,
      "Ã¤nd": 3891,
      "Ġpoliti": 3892,
      "ounds": 3893,
      "Ġformed": 3894,
      "Ġcli": 3895,
      "Ġtable": 3896,
      "hand": 3897,
      "57": 3898,
      "59": 3899,
      "Ġinvestig": 3900,
      "Ġmemory": 3901,
      "Ġlearn": 3902,
      "Ú©": 3903,
      "ster": 3904,
      "ĠTra": 3905,
      "Ġol": 3906,
      "Ġable": 3907,
      "isk": 3908,
      "ached": 3909,
      "Ð´Ð¸": 3910,
      "ny": 3911,
      "verage": 3912,
      "Ġobtained": 3913,
      "rix": 3914,
      "Ġgrowth": 3915,
      "Ġcompared": 3916,
      "Ġcapac": 3917,
      "________": 3918,
      "Ġmass": 3919,
      "Ġprinci": 3920,
      "Ġprofession": 3921,
      "Ġear": 3922,
      "Ġ33": 3923,
      "ĠEnglish": 3924,
      "ami": 3925,
      "ahr": 3926,
      "Ġtex": 3927,
      "ĠMet": 3928,
      "å®": 3929,
      "SC": 3930,
      "Ð°Ð»": 3931,
      "Ġheld": 3932,
      "Ġcorre": 3933,
      "Ġface": 3934,
      "wor": 3935,
      "ĠPres": 3936,
      "ĠPat": 3937,
      "Ġva": 3938,
      "Ã©v": 3939,
      "Ġ!=": 3940,
      "organ": 3941,
      "Ġlength": 3942,
      "Ġfeel": 3943,
      "Value": 3944,
      "Ġadditional": 3945,
      "Ġhistory": 3946,
      "Ġment": 3947,
      "Ġdell": 3948,
      "ÉĻ": 3949,
      "anto": 3950,
      "Ġtransport": 3951,
      "lem": 3952,
      "ipp": 3953,
      "Ð¡": 3954,
      "ĠÏĦÎ¿": 3955,
      "By": 3956,
      "\",\"": 3957,
      "tique": 3958,
      "ades": 3959,
      "Ġthus": 3960,
      "event": 3961,
      "áĥĲ": 3962,
      "itable": 3963,
      "Ġleurs": 3964,
      "ĠÎ½": 3965,
      "×ª": 3966,
      "Ġvot": 3967,
      "asse": 3968,
      "Ġfall": 3969,
      "Ñį": 3970,
      "Ġacross": 3971,
      "duce": 3972,
      "ucle": 3973,
      "IE": 3974,
      "Ġthought": 3975,
      "Ġcross": 3976,
      "Ġcro": 3977,
      "2013": 3978,
      "ethyl": 3979,
      "ufact": 3980,
      "Ġlater": 3981,
      "ĠYork": 3982,
      "ĠpÃ¥": 3983,
      "Ġsum": 3984,
      "à¤¤": 3985,
      "aining": 3986,
      "####": 3987,
      "Ġanaly": 3988,
      "Ġtel": 3989,
      "ego": 3990,
      "For": 3991,
      "Ġexpression": 3992,
      "det": 3993,
      "Ġcircuit": 3994,
      "ike": 3995,
      "Ġgovernment": 3996,
      "iting": 3997,
      "ĠBar": 3998,
      "gram": 3999,
      "ĠÐ¾Ð±": 4000,
      "unts": 4001,
      "ilit": 4002,
      "ĠEt": 4003,
      "ĠCourt": 4004,
      "Ġshare": 4005,
      "Ġsugg": 4006,
      "Ġhouse": 4007,
      "De": 4008,
      "ĠZe": 4009,
      "Ġexpos": 4010,
      "based": 4011,
      "ĠÂ£": 4012,
      "van": 4013,
      "IA": 4014,
      "ĠDer": 4015,
      "Ġdoor": 4016,
      "Ġpersonn": 4017,
      "aries": 4018,
      "ĠoÃ¹": 4019,
      "Ġwa": 4020,
      "ĠStr": 4021,
      "sten": 4022,
      "Ġweight": 4023,
      "Ġpast": 4024,
      "Ġeiner": 4025,
      "uz": 4026,
      "Ġnatural": 4027,
      "Ġwhole": 4028,
      "Ã©p": 4029,
      "Ġgroups": 4030,
      "View": 4031,
      "ĠFl": 4032,
      "Ġmut": 4033,
      "ticles": 4034,
      "oman": 4035,
      "ĠRep": 4036,
      "Ġhar": 4037,
      "ĠAct": 4038,
      "Mod": 4039,
      "ting": 4040,
      "));": 4041,
      "Ġther": 4042,
      "ĠCap": 4043,
      "gment": 4044,
      "ĠBro": 4045,
      "Ġ2007": 4046,
      "SP": 4047,
      "onne": 4048,
      "Ġlevels": 4049,
      "Ð¾Ð¿": 4050,
      "ĠArticle": 4051,
      "Ġstatic": 4052,
      "Ġage": 4053,
      "Ġmid": 4054,
      "iger": 4055,
      "Sh": 4056,
      "abe": 4057,
      "ibus": 4058,
      "Ġmob": 4059,
      "size": 4060,
      "Ð»Ñı": 4061,
      "Ġkeep": 4062,
      "Ġfig": 4063,
      "nom": 4064,
      "ĠÂłĠÂł": 4065,
      "ring": 4066,
      "ĠRec": 4067,
      "orpor": 4068,
      "Ġlearning": 4069,
      "Ġtransfer": 4070,
      "Ġcannot": 4071,
      "si": 4072,
      "Ġelements": 4073,
      "Ġforce": 4074,
      "Ġinstr": 4075,
      "riter": 4076,
      "bor": 4077,
      "ĠSer": 4078,
      "chÃ©": 4079,
      "ÑģÑĤÐ¸": 4080,
      "Ġvel": 4081,
      "Ġaccept": 4082,
      "Ġgoing": 4083,
      "ĠSee": 4084,
      "Ã¨g": 4085,
      "Ġactivity": 4086,
      "Ġsolution": 4087,
      "Ġhor": 4088,
      "fect": 4089,
      "ĠdÃ©p": 4090,
      "Ġmoment": 4091,
      "TER": 4092,
      "No": 4093,
      "Ġintegr": 4094,
      "sec": 4095,
      "hel": 4096,
      "ĠAmerican": 4097,
      "Ġpan": 4098,
      "Ġstandard": 4099,
      "ĠIntern": 4100,
      "PL": 4101,
      "Ġsomething": 4102,
      "ÑģÐºÐ¸": 4103,
      "Ġearly": 4104,
      "raf": 4105,
      "Ġtypes": 4106,
      "Ġmicro": 4107,
      "Ġsuggest": 4108,
      "ched": 4109,
      "raft": 4110,
      "ĠÐ»": 4111,
      "ĠGl": 4112,
      "He": 4113,
      "2022": 4114,
      "Ġgeb": 4115,
      "unk": 4116,
      "Ġkom": 4117,
      "cle": 4118,
      "Ġfon": 4119,
      "TE": 4120,
      "lichen": 4121,
      "×¢": 4122,
      "Ġconsum": 4123,
      "illed": 4124,
      "Ġalways": 4125,
      "riv": 4126,
      "Ġpow": 4127,
      "Ġelectro": 4128,
      "Ġ2006": 4129,
      "Ac": 4130,
      "annel": 4131,
      "Ġpoli": 4132,
      "ãĥ¼": 4133,
      "Ġbelow": 4134,
      "Ġground": 4135,
      "alis": 4136,
      "ĠÅ¾": 4137,
      "ened": 4138,
      "Ġprovides": 4139,
      "Ġpack": 4140,
      "Ġhy": 4141,
      "atives": 4142,
      "Ġwird": 4143,
      "Ġ34": 4144,
      "Ġarticle": 4145,
      "Ġrelig": 4146,
      "igned": 4147,
      "Ġnar": 4148,
      "eff": 4149,
      "side": 4150,
      "Ãµes": 4151,
      "ĠEUR": 4152,
      "Ġspace": 4153,
      "Ġemb": 4154,
      "Ġprem": 4155,
      "lim": 4156,
      "çļ": 4157,
      "TS": 4158,
      "ensive": 4159,
      "ronic": 4160,
      "][": 4161,
      "Ġask": 4162,
      "Ġ--": 4163,
      "/>": 4164,
      "Ġconform": 4165,
      "Ġcontinu": 4166,
      "elij": 4167,
      "Ġ**": 4168,
      "Ġcolor": 4169,
      "Ġze": 4170,
      "Ġnam": 4171,
      "Ġfood": 4172,
      "Ġdan": 4173,
      "áĥĺ": 4174,
      "×ĳ": 4175,
      "Ã©ment": 4176,
      "ĠTrans": 4177,
      "ĠDis": 4178,
      "Ġrot": 4179,
      "ÑĩÐµ": 4180,
      "ĠAut": 4181,
      "ALL": 4182,
      "ĠÙģ": 4183,
      "Ġoriginal": 4184,
      "Â¬": 4185,
      "Ġincluded": 4186,
      "ponse": 4187,
      "Ġwur": 4188,
      "but": 4189,
      "Ġyoung": 4190,
      "Ġba": 4191,
      "Ġainsi": 4192,
      "Ġlanguage": 4193,
      "Ġtherefore": 4194,
      "esta": 4195,
      "Ġchalleng": 4196,
      "ÐµÐ½Ð¸Ðµ": 4197,
      "rait": 4198,
      "tir": 4199,
      "ĠEs": 4200,
      "hol": 4201,
      "Ġcam": 4202,
      "bers": 4203,
      "ÎµÏĤ": 4204,
      "Ġseen": 4205,
      ".âĢĿ": 4206,
      "Ġsuiv": 4207,
      "Ġunderstanding": 4208,
      "ĠSept": 4209,
      "ãģ«": 4210,
      "Ġcomponents": 4211,
      "agne": 4212,
      "bas": 4213,
      "Ġeffects": 4214,
      "Ġca": 4215,
      "more": 4216,
      "dem": 4217,
      "Ġteach": 4218,
      "Ġquality": 4219,
      "tiff": 4220,
      "aly": 4221,
      "ĠLic": 4222,
      "Ġcontact": 4223,
      "FF": 4224,
      "Ġdin": 4225,
      "Ġmort": 4226,
      "Ġspr": 4227,
      "mente": 4228,
      "prÃ¨s": 4229,
      "Ġprint": 4230,
      "pol": 4231,
      "Ġven": 4232,
      "Ġmultiple": 4233,
      "plac": 4234,
      "Ġsav": 4235,
      "Ø¬": 4236,
      "àª": 4237,
      "usion": 4238,
      "ops": 4239,
      "ĠMc": 4240,
      "Ġpersonal": 4241,
      "ĠCON": 4242,
      "blic": 4243,
      "ĠIV": 4244,
      "TR": 4245,
      "Ġexerc": 4246,
      "Ġbed": 4247,
      "Ġperformed": 4248,
      "ify": 4249,
      "Ġ36": 4250,
      "ĠIS": 4251,
      "ĠgÄ§": 4252,
      "Ð´Ðµ": 4253,
      "artment": 4254,
      "çĶ": 4255,
      "ori": 4256,
      "ervice": 4257,
      "Ġprocessing": 4258,
      "Ġprice": 4259,
      "Ã¡r": 4260,
      "ussi": 4261,
      "ĠString": 4262,
      "Ġpaper": 4263,
      "Ġliter": 4264,
      "Ġpressure": 4265,
      "****************": 4266,
      "enci": 4267,
      "ä¹": 4268,
      "ÖĢ": 4269,
      "åĲ": 4270,
      "Ġdecision": 4271,
      "Ġdistribution": 4272,
      "Ġoperations": 4273,
      "Ð¾Ð¶": 4274,
      "Ġcum": 4275,
      "osis": 4276,
      "Ġax": 4277,
      "esch": 4278,
      "Ġavait": 4279,
      "Ġfair": 4280,
      "ĠSci": 4281,
      "Ġà°": 4282,
      "istic": 4283,
      "ags": 4284,
      "ĠSim": 4285,
      "Å¥": 4286,
      "ela": 4287,
      "Ġdar": 4288,
      "Ġho": 4289,
      "osph": 4290,
      "Â·": 4291,
      "ln": 4292,
      "han": 4293,
      "Ġpolicy": 4294,
      "ds": 4295,
      "pportun": 4296,
      "urance": 4297,
      "âĸ": 4298,
      "Ġshows": 4299,
      "Ġnor": 4300,
      "Ġplain": 4301,
      "Ġdone": 4302,
      "ika": 4303,
      "otal": 4304,
      "Ġadap": 4305,
      ")-": 4306,
      "ola": 4307,
      "Ġhydro": 4308,
      "ulf": 4309,
      "Not": 4310,
      "Ġconsidered": 4311,
      "Ġrights": 4312,
      "Ġmatter": 4313,
      "cho": 4314,
      "anger": 4315,
      "uje": 4316,
      "gal": 4317,
      "Ġft": 4318,
      "ample": 4319,
      "à¤¨": 4320,
      "Ġsitu": 4321,
      "Ġsoit": 4322,
      "Ġconnected": 4323,
      "Ġci": 4324,
      "ĠpÅĻ": 4325,
      "Ġgi": 4326,
      "Ġsatisf": 4327,
      "Î½Î±": 4328,
      "zer": 4329,
      "Ġdeath": 4330,
      "ground": 4331,
      "Ġsite": 4332,
      "III": 4333,
      "gu": 4334,
      "Ġquestions": 4335,
      "Ġnou": 4336,
      "Ġdiscl": 4337,
      "Ġunter": 4338,
      "Ġ~": 4339,
      "Ð¾ÑĤ": 4340,
      "ĠÃ©tait": 4341,
      "Ġaltern": 4342,
      "Ġactions": 4343,
      "Ġgreater": 4344,
      "fully": 4345,
      "Ġcomplet": 4346,
      "ĠOct": 4347,
      "Ġnur": 4348,
      "CR": 4349,
      "Ġcy": 4350,
      "\";": 4351,
      "crip": 4352,
      "Ġspecies": 4353,
      "Ġpays": 4354,
      "vement": 4355,
      "Ġclear": 4356,
      "Ġparts": 4357,
      "App": 4358,
      "Ġfit": 4359,
      "Ġpubl": 4360,
      "isi": 4361,
      "Ġ×ĳ": 4362,
      "ady": 4363,
      "Ġremov": 4364,
      "aling": 4365,
      "Ġ75": 4366,
      "Ġadm": 4367,
      "Ġfavor": 4368,
      "Ġexperience": 4369,
      "Get": 4370,
      "una": 4371,
      "istor": 4372,
      "Ġnr": 4373,
      "ĠCoun": 4374,
      "Ġemp": 4375,
      "Ġinstance": 4376,
      "itting": 4377,
      "âĸł": 4378,
      "thing": 4379,
      "oo": 4380,
      "list": 4381,
      "ĠMore": 4382,
      "ready": 4383,
      "ĠGeneral": 4384,
      "ĠEN": 4385,
      "ideo": 4386,
      "Des": 4387,
      "ĠÐºÐ°": 4388,
      "ĠÐľ": 4389,
      "Ã¼n": 4390,
      "'m": 4391,
      "Ġfinanci": 4392,
      "Ġrespectively": 4393,
      "berg": 4394,
      "Ġorg": 4395,
      "Ġsind": 4396,
      "æĸ": 4397,
      "Ġdisease": 4398,
      "Ġ70": 4399,
      "Ġvehic": 4400,
      "err": 4401,
      "Ġbehav": 4402,
      "ÏĢÎ¹": 4403,
      "venue": 4404,
      "Ġexperien": 4405,
      "Ġdemon": 4406,
      "umn": 4407,
      "Ġmm": 4408,
      "Ġlimited": 4409,
      "conn": 4410,
      "ĠÎķ": 4411,
      "Ġrele": 4412,
      "Ġnga": 4413,
      "aciones": 4414,
      "ĠDo": 4415,
      "spec": 4416,
      "Ġarrang": 4417,
      "Ġdetermined": 4418,
      "Ã¡t": 4419,
      "Ġnombre": 4420,
      "ĠSub": 4421,
      "ĠPub": 4422,
      "esis": 4423,
      "Ġentire": 4424,
      "pÃ©": 4425,
      "Ġbreak": 4426,
      "aria": 4427,
      "Ġlink": 4428,
      "Ġappropri": 4429,
      "Ġfilm": 4430,
      "ĠEin": 4431,
      "ĠGerm": 4432,
      "Ġappe": 4433,
      "ĠÐ´Ð°": 4434,
      "Ã¤m": 4435,
      "Ġthough": 4436,
      "uses": 4437,
      "åĪ": 4438,
      "\":[": 4439,
      "Ġknowledge": 4440,
      "];": 4441,
      "tices": 4442,
      "times": 4443,
      "Ġtub": 4444,
      "Ġdass": 4445,
      "Ġevents": 4446,
      "Ġapplied": 4447,
      "Ġii": 4448,
      "Ġconnection": 4449,
      "Text": 4450,
      "Ġfive": 4451,
      "ØŃ": 4452,
      "Ġzijn": 4453,
      "Ġplat": 4454,
      "Ġ2022": 4455,
      "ĠLet": 4456,
      "omet": 4457,
      "Ġaway": 4458,
      "ĠprÃ©sent": 4459,
      "ordin": 4460,
      "Ġplant": 4461,
      "iving": 4462,
      "nis": 4463,
      "Comm": 4464,
      "çļĦ": 4465,
      "CO": 4466,
      "ittee": 4467,
      "×©": 4468,
      "rij": 4469,
      "Ġdrug": 4470,
      "Ġunique": 4471,
      "ski": 4472,
      "ĠÐĿ": 4473,
      "Ġonce": 4474,
      "omes": 4475,
      "ĠUniversity": 4476,
      "Ġchem": 4477,
      "fa": 4478,
      "Ġdefined": 4479,
      "strate": 4480,
      "bon": 4481,
      "urities": 4482,
      "Ġjed": 4483,
      "ÏĢÏĮ": 4484,
      "à¥Ģ": 4485,
      "ej": 4486,
      "Ġ38": 4487,
      "Ð¾Ð·": 4488,
      "Ġpurch": 4489,
      "oci": 4490,
      "rc": 4491,
      "arc": 4492,
      "Îķ": 4493,
      "Ġsobre": 4494,
      "ÐĲ": 4495,
      "ĠSm": 4496,
      "imm": 4497,
      "Ġnormal": 4498,
      "Ġcommunity": 4499,
      "ÑģÐµ": 4500,
      "Ġcorresponding": 4501,
      "å¹´": 4502,
      "PE": 4503,
      "Ġcomprising": 4504,
      "Î®ÏĤ": 4505,
      "amen": 4506,
      "Ġ37": 4507,
      "Ġplural": 4508,
      "Ġindepend": 4509,
      "file": 4510,
      "Ġautres": 4511,
      "ners": 4512,
      "IO": 4513,
      "Ġclos": 4514,
      "ĠAcc": 4515,
      "tica": 4516,
      "Ġreported": 4517,
      "tivity": 4518,
      "ĠMarch": 4519,
      "Î±Ïģ": 4520,
      "Ġ42": 4521,
      "AND": 4522,
      "Ġdetail": 4523,
      "Ġhon": 4524,
      "Ġextra": 4525,
      "Pr": 4526,
      "arily": 4527,
      "Ġdeb": 4528,
      "uni": 4529,
      "ĠSal": 4530,
      "PR": 4531,
      "word": 4532,
      "ÑĩÐ¸": 4533,
      "ĠÏĦÎ·Î½": 4534,
      "Ġeffective": 4535,
      "ibil": 4536,
      "ĠJune": 4537,
      "Ġaber": 4538,
      "Ġgenerally": 4539,
      "Ġroz": 4540,
      "Reg": 4541,
      "Ġcut": 4542,
      "ĠWhat": 4543,
      "vey": 4544,
      "Se": 4545,
      "Ùī": 4546,
      "Ġcharge": 4547,
      "Ġcosts": 4548,
      "×ł": 4549,
      "td": 4550,
      "Ġcomputer": 4551,
      "ĠMod": 4552,
      "Ġassemb": 4553,
      "['": 4554,
      "NE": 4555,
      "ĠDel": 4556,
      "ĠDep": 4557,
      "Ðŀ": 4558,
      "Ġrather": 4559,
      "uls": 4560,
      "Ġsuff": 4561,
      "Ġselected": 4562,
      "ĠHis": 4563,
      "fort": 4564,
      "Ġwomen": 4565,
      "pret": 4566,
      "ington": 4567,
      "Ġep": 4568,
      "Ð³Ð¾": 4569,
      "liche": 4570,
      "Ġopin": 4571,
      "Ġ2005": 4572,
      "Ġprec": 4573,
      "used": 4574,
      "zÄħ": 4575,
      "ĠInc": 4576,
      "Ġapproxim": 4577,
      "ditional": 4578,
      "Is": 4579,
      "lay": 4580,
      "Ġrelative": 4581,
      "Ġnation": 4582,
      "Ġtowards": 4583,
      "most": 4584,
      "Ġhalf": 4585,
      "ya": 4586,
      "js": 4587,
      "PT": 4588,
      "ĠTO": 4589,
      "anie": 4590,
      "Ġ2004": 4591,
      "Ġkas": 4592,
      "Ġtur": 4593,
      "Ġconv": 4594,
      "erve": 4595,
      "hing": 4596,
      "Ġparag": 4597,
      "hl": 4598,
      "andid": 4599,
      "Ġpp": 4600,
      "Ġarch": 4601,
      "Object": 4602,
      "Ã´t": 4603,
      "Ġdal": 4604,
      "($": 4605,
      "Õ¸": 4606,
      "âĪĴ": 4607,
      "geb": 4608,
      "\"\"": 4609,
      "Ġpen": 4610,
      "verse": 4611,
      "ĠFeb": 4612,
      "wi": 4613,
      "Ġsituation": 4614,
      "aÃ§Ã£o": 4615,
      "Key": 4616,
      "igne": 4617,
      "ĠAfter": 4618,
      "ellen": 4619,
      "ĠGre": 4620,
      "Ġparties": 4621,
      "oor": 4622,
      "Ġadjust": 4623,
      "ÑģÑĮ": 4624,
      "Ġsimple": 4625,
      "Ġstudents": 4626,
      "ĠSan": 4627,
      "MA": 4628,
      "Ġactivities": 4629,
      "Ġload": 4630,
      "ĠApril": 4631,
      "Ġworking": 4632,
      "().": 4633,
      "ĠFR": 4634,
      "ĠBank": 4635,
      "Ġindividuals": 4636,
      "fil": 4637,
      "Ġwall": 4638,
      "Ġáĥ": 4639,
      "Ġmanufact": 4640,
      "tex": 4641,
      "Ġ44": 4642,
      "Ġtrial": 4643,
      "Ġopportun": 4644,
      "Ġ2000": 4645,
      "ging": 4646,
      "tres": 4647,
      "Ġot": 4648,
      "Ġproblem": 4649,
      "aque": 4650,
      "Ġexpected": 4651,
      "ĠWor": 4652,
      "EST": 4653,
      "ÑĩÐ°": 4654,
      "ERS": 4655,
      "Ġcontre": 4656,
      "Ġ000": 4657,
      "Ġwords": 4658,
      "Ġmechanism": 4659,
      "Ġevalu": 4660,
      "Ġterrit": 4661,
      "Ġ01": 4662,
      "Ã¤l": 4663,
      "Ã¡v": 4664,
      "Ġlat": 4665,
      "Ã¬": 4666,
      "ĠCre": 4667,
      "else": 4668,
      "At": 4669,
      "Ġbra": 4670,
      "CL": 4671,
      "Ġliquid": 4672,
      "sta": 4673,
      "Ġ->": 4674,
      "Ġpopulation": 4675,
      "ĠGen": 4676,
      "burg": 4677,
      "Ġok": 4678,
      "reng": 4679,
      "Ġpag": 4680,
      "Ġweek": 4681,
      "gra": 4682,
      "Ġrecogn": 4683,
      "Ġissue": 4684,
      "fol": 4685,
      "oring": 4686,
      "ĠAus": 4687,
      "ema": 4688,
      "Ġbit": 4689,
      "Ġlegal": 4690,
      "Ġcame": 4691,
      "á½": 4692,
      "à¦¾": 4693,
      "ä½": 4694,
      "Ġmilit": 4695,
      "pers": 4696,
      "Ñĺ": 4697,
      "Ġconver": 4698,
      "tically": 4699,
      "ĠForm": 4700,
      "Ãªt": 4701,
      "bus": 4702,
      "Ġhier": 4703,
      "ham": 4704,
      "Ġuit": 4705,
      "acht": 4706,
      "hi": 4707,
      "Ġnumer": 4708,
      "Ġindex": 4709,
      "Ġclin": 4710,
      "Ġdevices": 4711,
      "Ġscre": 4712,
      "Ġworks": 4713,
      "Ġactive": 4714,
      "Ġcomponent": 4715,
      "Ġsoftware": 4716,
      "Ġprogress": 4717,
      "Ð²Ðµ": 4718,
      "ĠÏĢÏģÎ¿": 4719,
      "icit": 4720,
      "ĠNational": 4721,
      "ĠSome": 4722,
      "inding": 4723,
      "ously": 4724,
      "Ġaim": 4725,
      "Ġfeatures": 4726,
      "Ġquar": 4727,
      "ĠID": 4728,
      "Ġbill": 4729,
      "Ġlu": 4730,
      "ĠFurther": 4731,
      ",âĢĿ": 4732,
      "Ġresources": 4733,
      "Ġworden": 4734,
      "ÑģÑĤÐ°": 4735,
      "Ġwy": 4736,
      "ĠAR": 4737,
      "Ð°Ð½Ðµ": 4738,
      "Ġissues": 4739,
      "Ġvirt": 4740,
      "ANT": 4741,
      "Ġà®": 4742,
      "ila": 4743,
      "Ġarti": 4744,
      "Ð³Ð°": 4745,
      "Ġtas": 4746,
      "Ġ48": 4747,
      "Ġtes": 4748,
      "Ġprevent": 4749,
      "Ġ×Ĳ": 4750,
      "ĠsiÄĻ": 4751,
      "Ġversion": 4752,
      "Ġbasis": 4753,
      "Ġrapport": 4754,
      "iento": 4755,
      "cm": 4756,
      "ĠSoci": 4757,
      "Ġvalid": 4758,
      "åľ": 4759,
      "Ġrend": 4760,
      "ishing": 4761,
      "body": 4762,
      "Ġuns": 4763,
      "ÏĦÎ·": 4764,
      "Ġpou": 4765,
      "ĠUS": 4766,
      "Ġorganiz": 4767,
      "ĠtrÃ¨s": 4768,
      "Ã©qu": 4769,
      "Ġdefin": 4770,
      "ĠCe": 4771,
      "wise": 4772,
      "Ġmaterials": 4773,
      "Ġeste": 4774,
      "Ġti": 4775,
      "Ġgel": 4776,
      "Ġalready": 4777,
      "Ġlocation": 4778,
      "Î¼ÎŃ": 4779,
      "ĠUnion": 4780,
      "igt": 4781,
      "'.": 4782,
      "Ġcommand": 4783,
      "Ġdraw": 4784,
      "ket": 4785,
      "kon": 4786,
      "ĠLo": 4787,
      "Ġwir": 4788,
      "ÐºÐ¾": 4789,
      "Ġtechniques": 4790,
      "Ð»ÐµÐ½": 4791,
      "TH": 4792,
      "ĠLond": 4793,
      "FR": 4794,
      "Ġpatient": 4795,
      "ifi": 4796,
      "PS": 4797,
      "ĠÐĲ": 4798,
      "Ġmedia": 4799,
      "nia": 4800,
      "andom": 4801,
      "Ġspect": 4802,
      "idi": 4803,
      "adem": 4804,
      "Ġattrib": 4805,
      "--------------------------------": 4806,
      "ÄĹs": 4807,
      "zjoni": 4808,
      "het": 4809,
      "ĠMo": 4810,
      "Ġcheck": 4811,
      "issions": 4812,
      "Ġï": 4813,
      "ĠVol": 4814,
      "Ġprincipal": 4815,
      "aves": 4816,
      "eds": 4817,
      "Ġoptim": 4818,
      "light": 4819,
      "Ġobserved": 4820,
      "ĠAng": 4821,
      "field": 4822,
      "Ġsubstanti": 4823,
      "Ġgew": 4824,
      "IB": 4825,
      "Ġinitial": 4826,
      "idge": 4827,
      "ĠBi": 4828,
      "Ġcontra": 4829,
      "ĠSE": 4830,
      "MS": 4831,
      "tional": 4832,
      "ensity": 4833,
      "Ġpositive": 4834,
      "Ġdiss": 4835,
      "oro": 4836,
      "ives": 4837,
      "agen": 4838,
      "Ġ39": 4839,
      "iii": 4840,
      "Ġstra": 4841,
      "amin": 4842,
      "fen": 4843,
      "ĠJanu": 4844,
      "Ġdei": 4845,
      "';": 4846,
      "cons": 4847,
      "ĠCOM": 4848,
      "Ġfort": 4849,
      "Ġlines": 4850,
      "_(": 4851,
      "Ġak": 4852,
      "onder": 4853,
      "ĠÏĥÏħ": 4854,
      "Ġbound": 4855,
      "ĠStud": 4856,
      "ĠRE": 4857,
      "Ġglobal": 4858,
      "Ġparticularly": 4859,
      "ĠlÃ©g": 4860,
      "cles": 4861,
      "Ø´": 4862,
      "Ġmonths": 4863,
      "fc": 4864,
      "Ġstatus": 4865,
      "pan": 4866,
      "Ġtown": 4867,
      "bol": 4868,
      "aud": 4869,
      "inte": 4870,
      "ĠFe": 4871,
      "Ġstorage": 4872,
      "irect": 4873,
      "rate": 4874,
      "inder": 4875,
      "Ġcountries": 4876,
      "Ġlot": 4877,
      "âĢŀ": 4878,
      "ream": 4879,
      "Ġplurality": 4880,
      "Ġ:=": 4881,
      "Ġcontinue": 4882,
      "Ġprz": 4883,
      "lies": 4884,
      "ĠLA": 4885,
      "Ġareas": 4886,
      "Ġbegin": 4887,
      "oit": 4888,
      "orum": 4889,
      "user": 4890,
      "eten": 4891,
      "Ã§Ãµes": 4892,
      "Ġnote": 4893,
      "urer": 4894,
      "ĠÙĦ": 4895,
      "dr": 4896,
      "Ġherein": 4897,
      "ĠScholar": 4898,
      "áĥĲáĥ": 4899,
      "istics": 4900,
      "Ġblood": 4901,
      "uns": 4902,
      "ãĤĭ": 4903,
      "https": 4904,
      "Ġcond": 4905,
      "Ġich": 4906,
      "ĠHar": 4907,
      "Ġtag": 4908,
      "Ġadded": 4909,
      "gn": 4910,
      "Ġrecomm": 4911,
      "Ġphysical": 4912,
      "gar": 4913,
      "ÎµÏģ": 4914,
      "Ġproceed": 4915,
      "Ġprep": 4916,
      "Ġmas": 4917,
      "Ġ41": 4918,
      "Ġreflect": 4919,
      "seil": 4920,
      "Ġesc": 4921,
      "íķ": 4922,
      "Ġbank": 4923,
      "ÃŃn": 4924,
      "Ġstreng": 4925,
      "Ġsen": 4926,
      "vez": 4927,
      "function": 4928,
      "Î¿ÏĤ": 4929,
      "Ġgot": 4930,
      "like": 4931,
      "Ġeinen": 4932,
      "iser": 4933,
      "Ġproperties": 4934,
      "Ġaussi": 4935,
      "Ġminist": 4936,
      "void": 4937,
      "Ġapparatus": 4938,
      "2021": 4939,
      "Ġmoney": 4940,
      "Ġstri": 4941,
      "Ġá¼": 4942,
      "ĠLi": 4943,
      "Ġresid": 4944,
      "Test": 4945,
      "2014": 4946,
      "Ġprotein": 4947,
      "Ġparty": 4948,
      "issance": 4949,
      "Ġengine": 4950,
      "keit": 4951,
      "Ġmount": 4952,
      "yes": 4953,
      "omas": 4954,
      "ulated": 4955,
      "Ġwhy": 4956,
      "sen": 4957,
      "Ġbur": 4958,
      "Ġfront": 4959,
      "gin": 4960,
      "ez": 4961,
      "uto": 4962,
      "Ġai": 4963,
      "acks": 4964,
      "Ġamb": 4965,
      "cond": 4966,
      "Ġcir": 4967,
      "Ġled": 4968,
      "CS": 4969,
      "Ġsearch": 4970,
      "DA": 4971,
      "Ġvolume": 4972,
      "umber": 4973,
      "aven": 4974,
      "include": 4975,
      "ĠJuly": 4976,
      "Ab": 4977,
      "ĠAugust": 4978,
      "oti": 4979,
      "rant": 4980,
      "cu": 4981,
      "ĠChrist": 4982,
      "prÃ©s": 4983,
      "ĠØ¯": 4984,
      "ÅĨ": 4985,
      "Ġ],": 4986,
      "Ġniet": 4987,
      "500": 4988,
      "Error": 4989,
      "Ġtum": 4990,
      "ÏĥÎ·ÏĤ": 4991,
      "cop": 4992,
      "rich": 4993,
      "Ġdetermine": 4994,
      "ĠEv": 4995,
      "rench": 4996,
      "TT": 4997,
      "Ġmode": 4998,
      "entif": 4999,
      "ĠPort": 5000,
      "Ġexpect": 5001,
      "-(": 5002,
      "elect": 5003,
      "Ġ&&": 5004,
      "rame": 5005,
      "Ġrates": 5006,
      "ĠOur": 5007,
      "Ġstrength": 5008,
      "tian": 5009,
      "ĠmÃ©": 5010,
      "æĹ": 5011,
      "Ġà¤ķ": 5012,
      "ĠSouth": 5013,
      "2020": 5014,
      "ĠMiss": 5015,
      "ega": 5016,
      "illa": 5017,
      "Ġrich": 5018,
      "åŃ": 5019,
      "ĠFig": 5020,
      "Ġcamp": 5021,
      "Ġculture": 5022,
      "Ġdigital": 5023,
      "Ð·Ð°": 5024,
      "ulations": 5025,
      "Ġcollect": 5026,
      "ads": 5027,
      "nex": 5028,
      "Ġnel": 5029,
      "Ġ500": 5030,
      "raz": 5031,
      "ĠprÃ©c": 5032,
      "ÐŁ": 5033,
      "Ġdescription": 5034,
      "Can": 5035,
      "ãģŁ": 5036,
      "Ġoccur": 5037,
      "ĠId": 5038,
      "vest": 5039,
      "aks": 5040,
      "ĠMor": 5041,
      "tat": 5042,
      "Ø§Ø±": 5043,
      "Å¿Å¿": 5044,
      "iller": 5045,
      "Ġincome": 5046,
      "Ġbook": 5047,
      "entific": 5048,
      "Ð»Ð¾": 5049,
      "sych": 5050,
      "pace": 5051,
      "Ġphase": 5052,
      "Ġsust": 5053,
      "Set": 5054,
      "ĠÃ©l": 5055,
      "ĠÄ¯": 5056,
      "Ġcancer": 5057,
      "Ġmanner": 5058,
      "Ġki": 5059,
      "¿½": 5060,
      "Ġarri": 5061,
      "EE": 5062,
      "illes": 5063,
      "ĠWilliam": 5064,
      "tar": 5065,
      "where": 5066,
      "Ġequal": 5067,
      "Ġoperating": 5068,
      "ĠÑģÑĬ": 5069,
      "Ġtom": 5070,
      "Ġcredit": 5071,
      "state": 5072,
      "ws": 5073,
      "åį": 5074,
      "Ġbud": 5075,
      "Ġgrant": 5076,
      "Ġaverage": 5077,
      "Ġ110": 5078,
      "Ġtemps": 5079,
      "ĠArt": 5080,
      "Ġ2003": 5081,
      "Ġdynam": 5082,
      "ÐµÐ¼": 5083,
      "itter": 5084,
      "rn": 5085,
      "Ġaccur": 5086,
      "2012": 5087,
      "Ġmodels": 5088,
      "ĠLicense": 5089,
      "Qu": 5090,
      "Ġparte": 5091,
      "ĠOff": 5092,
      "lar": 5093,
      "Ġinvolved": 5094,
      "ĠÅ¼": 5095,
      "'ll": 5096,
      "(),": 5097,
      "Ġsor": 5098,
      "Ġprotection": 5099,
      "ota": 5100,
      "eli": 5101,
      "ĠWest": 5102,
      "Ġdelle": 5103,
      "ÐµÐ¹": 5104,
      "Ġorigin": 5105,
      "Ġpurpose": 5106,
      "qual": 5107,
      "imin": 5108,
      "perty": 5109,
      "py": 5110,
      "ativ": 5111,
      "reci": 5112,
      "Ġencore": 5113,
      "Ġmoins": 5114,
      "CI": 5115,
      "ĠSaint": 5116,
      "Ġreally": 5117,
      "ĠÏĦÏīÎ½": 5118,
      "ums": 5119,
      "ford": 5120,
      "tiques": 5121,
      "Ġpresented": 5122,
      "':": 5123,
      "ESS": 5124,
      "Ġ2002": 5125,
      "standing": 5126,
      "Ġmessage": 5127,
      "Ġtravail": 5128,
      "rab": 5129,
      "Ġstyle": 5130,
      "Ġcru": 5131,
      "ĠrÃ¨g": 5132,
      "Ġeinem": 5133,
      "ocation": 5134,
      "Ġability": 5135,
      "ĠOR": 5136,
      "inf": 5137,
      "'d": 5138,
      "exp": 5139,
      "ãĥ³": 5140,
      "tage": 5141,
      "rif": 5142,
      "ĠPR": 5143,
      "Ġinfluence": 5144,
      "++": 5145,
      "Ġcard": 5146,
      "All": 5147,
      "Ã©ration": 5148,
      "Ġtry": 5149,
      "Ġseem": 5150,
      "Ġox": 5151,
      "Ġapplicable": 5152,
      "ricult": 5153,
      "hors": 5154,
      "Ġeller": 5155,
      "dec": 5156,
      "Ġcompan": 5157,
      "Ġpropri": 5158,
      "ober": 5159,
      "Met": 5160,
      "ĠBel": 5161,
      "Ġdetails": 5162,
      "Ġcomprises": 5163,
      "Ġvast": 5164,
      "oon": 5165,
      "Ġcateg": 5166,
      "uten": 5167,
      "ĠUnder": 5168,
      "tiva": 5169,
      "Ġincorpor": 5170,
      "Ġtoutes": 5171,
      "Åĵ": 5172,
      "term": 5173,
      "Ð¾Ð²Ð°": 5174,
      "And": 5175,
      "Ġvie": 5176,
      "ĠÑĤÐ°": 5177,
      "ĠSpec": 5178,
      "LO": 5179,
      "teurs": 5180,
      "Ġrue": 5181,
      "Ġclose": 5182,
      "Ġsein": 5183,
      "Ġmodern": 5184,
      "Ġgame": 5185,
      "ĠØª": 5186,
      "AV": 5187,
      "orith": 5188,
      "Ġroom": 5189,
      "\"}": 5190,
      "nej": 5191,
      "antage": 5192,
      "Ð½Ñı": 5193,
      "ĠDi": 5194,
      "Ġdroit": 5195,
      "ÐĿ": 5196,
      "Ã¼hr": 5197,
      "lique": 5198,
      "Co": 5199,
      "Ġpropor": 5200,
      "TO": 5201,
      "ĠCity": 5202,
      "ĠdÃ©s": 5203,
      "Add": 5204,
      "ovan": 5205,
      "bet": 5206,
      "Ġbuilding": 5207,
      "non": 5208,
      "Ġtechnology": 5209,
      "erd": 5210,
      "orge": 5211,
      "ova": 5212,
      "ĠNon": 5213,
      "year": 5214,
      "Ġà²": 5215,
      "alm": 5216,
      "Ġ/**": 5217,
      "uma": 5218,
      "ĠÐł": 5219,
      "Ġsaf": 5220,
      "code": 5221,
      "Ġdistance": 5222,
      "post": 5223,
      "Â».": 5224,
      "Ġeconomic": 5225,
      "ello": 5226,
      "Ġseries": 5227,
      "ĠÑĢÐµ": 5228,
      "UB": 5229,
      "Ðķ": 5230,
      "voir": 5231,
      "ĠÐºÐ¾": 5232,
      "Ġsignificantly": 5233,
      "Ġprimary": 5234,
      "Ġ102": 5235,
      "oire": 5236,
      "lication": 5237,
      "File": 5238,
      "Ġao": 5239,
      "ĠFre": 5240,
      "Les": 5241,
      "Ġ55": 5242,
      "ĠÐŀ": 5243,
      "ĠSur": 5244,
      "Õ«": 5245,
      "ĠChris": 5246,
      "ago": 5247,
      "ĠStre": 5248,
      "ĠLand": 5249,
      "Ġtoday": 5250,
      "Ġdeep": 5251,
      "Ġcentral": 5252,
      "Ġbij": 5253,
      "Ġdifference": 5254,
      "ria": 5255,
      "Ġtook": 5256,
      "ĠÑĦ": 5257,
      "Ġreceive": 5258,
      "Ġsequence": 5259,
      "Ġbott": 5260,
      "print": 5261,
      "Ø²": 5262,
      "Ġheart": 5263,
      "àµį": 5264,
      "ĠAD": 5265,
      "Ġsample": 5266,
      "auc": 5267,
      "tin": 5268,
      "Ġdouble": 5269,
      "Ġheat": 5270,
      "Ġ43": 5271,
      "ĠNorth": 5272,
      "Ġlors": 5273,
      "Ø§Øª": 5274,
      "Ġinternal": 5275,
      "Ġessential": 5276,
      "isch": 5277,
      "Ġhous": 5278,
      "Ã¼ck": 5279,
      "ĠGovern": 5280,
      "enen": 5281,
      "hes": 5282,
      "////////": 5283,
      "Ġformation": 5284,
      "Table": 5285,
      "Ġlin": 5286,
      "lier": 5287,
      "Ġ×ŀ": 5288,
      "Ġdonc": 5289,
      "Ġwritten": 5290,
      "Ġaccordance": 5291,
      "area": 5292,
      "ĠAL": 5293,
      "onds": 5294,
      "Â§": 5295,
      "Ð¼ÐµÐ½": 5296,
      "Ġpercent": 5297,
      "mt": 5298,
      "ĠRuss": 5299,
      "×ĵ": 5300,
      "Ġpractice": 5301,
      "ĠfranÃ§": 5302,
      "ĠaprÃ¨s": 5303,
      "encia": 5304,
      "Ġadministra": 5305,
      "Ġguid": 5306,
      "ĠKing": 5307,
      "Ġhttp": 5308,
      "Ġconvers": 5309,
      "Ġaplic": 5310,
      "ĠThus": 5311,
      "Ðĺ": 5312,
      "ĠFrom": 5313,
      "ĠKomis": 5314,
      "rund": 5315,
      "Î±Î½": 5316,
      "Ġregist": 5317,
      "âĢī": 5318,
      "dy": 5319,
      "ilder": 5320,
      "Ã¡m": 5321,
      "ĠNO": 5322,
      "osa": 5323,
      "Ġfab": 5324,
      "Ġeducation": 5325,
      "ĠÐ¿ÑĢÐ¾": 5326,
      "])": 5327,
      "oke": 5328,
      "Ġmotion": 5329,
      "dle": 5330,
      "Ġmagn": 5331,
      "Ġloi": 5332,
      "à¥ĭ": 5333,
      "Ġmai": 5334,
      "ising": 5335,
      "Ä¾": 5336,
      "ĠAu": 5337,
      "umin": 5338,
      "Time": 5339,
      "aterial": 5340,
      "Ġnas": 5341,
      "empt": 5342,
      "define": 5343,
      "omb": 5344,
      "Ġoppos": 5345,
      "Ġuz": 5346,
      "ancing": 5347,
      "lj": 5348,
      "/*": 5349,
      "áĥĶ": 5350,
      "Ġcircum": 5351,
      "ĠâĢĻ": 5352,
      "Ġ__": 5353,
      "erk": 5354,
      "ĠMont": 5355,
      "Ġattention": 5356,
      "agine": 5357,
      "anci": 5358,
      "Ġcat": 5359,
      "ĠÎ¼Îµ": 5360,
      "ĠTable": 5361,
      "Exception": 5362,
      "Â£": 5363,
      "ĠMal": 5364,
      "umb": 5365,
      "ester": 5366,
      "ei": 5367,
      "aden": 5368,
      "ustry": 5369,
      "Ġ×ľ": 5370,
      "reh": 5371,
      "eck": 5372,
      "Ġstatis": 5373,
      "Ġnight": 5374,
      "uti": 5375,
      "ĠÐ¶": 5376,
      "Ġhours": 5377,
      "inst": 5378,
      "2009": 5379,
      "Ġcoupl": 5380,
      "Ġthing": 5381,
      "iency": 5382,
      "Ġcandid": 5383,
      "Ġcommercial": 5384,
      "Ġneeds": 5385,
      "Ġtiss": 5386,
      "ĠWar": 5387,
      "rat": 5388,
      "Ġtut": 5389,
      "rd": 5390,
      "igu": 5391,
      "QU": 5392,
      "Ġsn": 5393,
      "Ġquanti": 5394,
      "Ġcash": 5395,
      "ART": 5396,
      "oat": 5397,
      "ĠÎ·": 5398,
      "Ġimpos": 5399,
      "Ĥ¬": 5400,
      "icon": 5401,
      "mann": 5402,
      "Ġassert": 5403,
      "Ġmont": 5404,
      "Ġlabor": 5405,
      "ĠsÃ©": 5406,
      "Ġregarding": 5407,
      "emble": 5408,
      "Ġmodule": 5409,
      "CA": 5410,
      "XX": 5411,
      "à§į": 5412,
      "Ġanci": 5413,
      "Ġ46": 5414,
      "Ġharm": 5415,
      "Ġcompe": 5416,
      "see": 5417,
      "ander": 5418,
      "Ġmoy": 5419,
      "Ġsac": 5420,
      "((": 5421,
      "ĠFOR": 5422,
      "ĠSeptember": 5423,
      "alia": 5424,
      "apit": 5425,
      "Ġimpl": 5426,
      "Î»Î»": 5427,
      "``": 5428,
      "itz": 5429,
      "Ġthereof": 5430,
      "ÑģÐ¿": 5431,
      "Ġwhose": 5432,
      "lij": 5433,
      "Ġexcept": 5434,
      "ĠLou": 5435,
      "Ġauc": 5436,
      "stra": 5437,
      "bal": 5438,
      "Ġpremi": 5439,
      "Ġfeed": 5440,
      "etting": 5441,
      "selves": 5442,
      "Ġlove": 5443,
      "airs": 5444,
      "Ã¼l": 5445,
      "Ġded": 5446,
      "Ġassets": 5447,
      "Man": 5448,
      "iche": 5449,
      "Ġimportance": 5450,
      "rer": 5451,
      "Ġincreasing": 5452,
      "Ġmakes": 5453,
      "Ġliber": 5454,
      "Ġexperiment": 5455,
      "Ġreduced": 5456,
      "Ã»t": 5457,
      "anges": 5458,
      "ĠNor": 5459,
      "Ġespecially": 5460,
      "Ġnucle": 5461,
      "âĤĤ": 5462,
      "Ġhimself": 5463,
      "Ġhttps": 5464,
      "cell": 5465,
      "ĠHen": 5466,
      "ĠDef": 5467,
      "mark": 5468,
      "ĠRel": 5469,
      "ĠJanuary": 5470,
      "group": 5471,
      "Ġparameters": 5472,
      "Ð¾Ð²Ð¸": 5473,
      "ĠÑģÑĤ": 5474,
      "ĠRet": 5475,
      "Sub": 5476,
      "Ġinstall": 5477,
      "Ġproviding": 5478,
      "à¤ķ": 5479,
      "ĠUni": 5480,
      "bb": 5481,
      "Ġnoch": 5482,
      "ologies": 5483,
      "asi": 5484,
      "Õ¥": 5485,
      "Î¿Î¹": 5486,
      "State": 5487,
      "ospital": 5488,
      "Ġoccup": 5489,
      "ctor": 5490,
      "ÅĤa": 5491,
      "ĠDen": 5492,
      "ĠSen": 5493,
      "Ph": 5494,
      "Ġ2001": 5495,
      "Ġ×©": 5496,
      "compl": 5497,
      "Ġ);": 5498,
      "olu": 5499,
      "ĠSie": 5500,
      "Ġri": 5501,
      "Ġplate": 5502,
      "owa": 5503,
      "Ġenough": 5504,
      "å¾": 5505,
      "Ġei": 5506,
      "ĠÏħ": 5507,
      "());": 5508,
      "iej": 5509,
      "uks": 5510,
      "role": 5511,
      "Â»,": 5512,
      "Ġelectric": 5513,
      "ãģ¨": 5514,
      "Ã¡g": 5515,
      "Ġzum": 5516,
      "gest": 5517,
      "ride": 5518,
      "car": 5519,
      "imal": 5520,
      "Item": 5521,
      "Of": 5522,
      "ĠĠĊ": 5523,
      "Ġitself": 5524,
      "Ġik": 5525,
      "ancial": 5526,
      "ĠPo": 5527,
      "inger": 5528,
      "head": 5529,
      "pu": 5530,
      "tn": 5531,
      "Ġoil": 5532,
      "Ġfast": 5533,
      "dev": 5534,
      "ãģ¯": 5535,
      "''": 5536,
      "acts": 5537,
      "pet": 5538,
      "Ġmeg": 5539,
      "Ġtransform": 5540,
      "âĢ¦âĢ¦": 5541,
      "Ġtrib": 5542,
      "Go": 5543,
      "sm": 5544,
      "Õ¶": 5545,
      "à¤¯": 5546,
      "%,": 5547,
      "ĠOf": 5548,
      "uge": 5549,
      "orb": 5550,
      "Ġclaims": 5551,
      "Ġsolid": 5552,
      "ead": 5553,
      "à¤Ĥ": 5554,
      "Trans": 5555,
      "Ġinternational": 5556,
      "using": 5557,
      "Ġalk": 5558,
      "ÐĴ": 5559,
      "Ġconfigured": 5560,
      "ĠSa": 5561,
      "ĠMad": 5562,
      "Form": 5563,
      "ĠNous": 5564,
      "sl": 5565,
      "Sc": 5566,
      "Ġdivid": 5567,
      "Ġproposed": 5568,
      "astic": 5569,
      "Ġprepar": 5570,
      "ĠĠĠĠĠĠĠĠĠĠĠĠĠĠ": 5571,
      "Ġbring": 5572,
      "ieved": 5573,
      "Ġmeasures": 5574,
      "Ġpain": 5575,
      "Ġsure": 5576,
      "âĢĺ": 5577,
      "Ġinterface": 5578,
      "ului": 5579,
      "ĠFrench": 5580,
      "pes": 5581,
      "à¤²": 5582,
      "irt": 5583,
      "rane": 5584,
      "PP": 5585,
      "Ġapplications": 5586,
      "Ġale": 5587,
      "Ġformer": 5588,
      "ahl": 5589,
      "à¦°": 5590,
      "works": 5591,
      "upe": 5592,
      "ederal": 5593,
      "Ġbil": 5594,
      "Ġnotre": 5595,
      "nik": 5596,
      "Ġlocated": 5597,
      "isen": 5598,
      "ĠĠĠĠĠĠĠĠĠĠĠĠĠĠĠĠĠĠĠĠĠĠĠĠĠĠĠĠĠĠĠ": 5599,
      "Ġlab": 5600,
      "Ġdot": 5601,
      "Ġ/*": 5602,
      "Ã³l": 5603,
      "ĠChe": 5604,
      "yer": 5605,
      "Ġ52": 5606,
      "ĠÎŃ": 5607,
      "101": 5608,
      "Ġrecon": 5609,
      "uh": 5610,
      "Ġsale": 5611,
      "osure": 5612,
      "ĠÎ²": 5613,
      "Ġthemselves": 5614,
      "Ġproj": 5615,
      "ĠDon": 5616,
      "apy": 5617,
      "Ġfrequency": 5618,
      "rent": 5619,
      "Ġcul": 5620,
      "Ass": 5621,
      "Ġef": 5622,
      "ĠgÃ©nÃ©ral": 5623,
      "Ġgraph": 5624,
      "Ġensure": 5625,
      "Ġils": 5626,
      "index": 5627,
      "ĠÐĶ": 5628,
      "Ġalla": 5629,
      "rid": 5630,
      "Ġchallenges": 5631,
      "Ġstates": 5632,
      "Ġsupply": 5633,
      "Ġsyst": 5634,
      "Ġprev": 5635,
      "Ġlikely": 5636,
      "Info": 5637,
      "Ġban": 5638,
      "Ġthroughout": 5639,
      "nih": 5640,
      "ĠFigure": 5641,
      "ĠLord": 5642,
      "Ġpresence": 5643,
      "ĠvÃ½": 5644,
      "ography": 5645,
      "ãĤĴ": 5646,
      "ĠOp": 5647,
      "Ġaj": 5648,
      "sts": 5649,
      "anta": 5650,
      "ocks": 5651,
      "Ġoptions": 5652,
      "Ġec": 5653,
      "Ä¼": 5654,
      "Î¿Ïģ": 5655,
      "ĠMy": 5656,
      "Ġsufficient": 5657,
      "Ġmedical": 5658,
      "ĠÐ¿ÑĢ": 5659,
      "Ġtermin": 5660,
      "Ġforms": 5661,
      "Ġband": 5662,
      "åĽ": 5663,
      "oto": 5664,
      "atz": 5665,
      "rary": 5666,
      "asta": 5667,
      "ĠÂ·": 5668,
      "imp": 5669,
      "Ġoffice": 5670,
      "titution": 5671,
      "lam": 5672,
      "ellow": 5673,
      "ĠØ¹": 5674,
      ",,": 5675,
      "Ġidentify": 5676,
      "uve": 5677,
      "Ġmedium": 5678,
      "omin": 5679,
      "Ġincl": 5680,
      "itro": 5681,
      "oven": 5682,
      "eto": 5683,
      "unter": 5684,
      "Ġhot": 5685,
      "rical": 5686,
      "Ġfine": 5687,
      "ateur": 5688,
      "Ġarray": 5689,
      "Be": 5690,
      "pite": 5691,
      "mat": 5692,
      "Ġcarry": 5693,
      "Ġful": 5694,
      "Ġeu": 5695,
      "rage": 5696,
      "Ġ47": 5697,
      "Ġboard": 5698,
      "Ġvic": 5699,
      "alian": 5700,
      "ĠÑĢÐ°Ð·": 5701,
      "ilos": 5702,
      "eln": 5703,
      "ĠSw": 5704,
      "ĠCounty": 5705,
      "Ġgrande": 5706,
      "Ġinterpret": 5707,
      "Ġê": 5708,
      "ville": 5709,
      "Ġwurde": 5710,
      "Ġfriends": 5711,
      "izes": 5712,
      "asion": 5713,
      "Ġfollows": 5714,
      "ĠÐĳ": 5715,
      "Ġcad": 5716,
      "Ġtraining": 5717,
      "TA": 5718,
      "struct": 5719,
      "ĠmÃ¡s": 5720,
      "Ġfunctions": 5721,
      "Ġmetal": 5722,
      "DS": 5723,
      "Ġconstruction": 5724,
      "band": 5725,
      "Ġrepe": 5726,
      "udes": 5727,
      "Ġcivil": 5728,
      "Ġfluid": 5729,
      "Ġcomplete": 5730,
      "cel": 5731,
      "Ð¾Ð´Ð¸": 5732,
      "tifs": 5733,
      "ĠÑĤÐµ": 5734,
      "Ġdiagn": 5735,
      "Ġupper": 5736,
      "my": 5737,
      "esto": 5738,
      "Ġ×ķ": 5739,
      "Ġcorrect": 5740,
      "Ġrestric": 5741,
      "Ġvehicle": 5742,
      "Ġlieu": 5743,
      "ĠDem": 5744,
      "ĠDO": 5745,
      "Ġclim": 5746,
      "Ġdirectly": 5747,
      "ril": 5748,
      "anning": 5749,
      "Ġactual": 5750,
      "Ġsup": 5751,
      "ĠvÃµ": 5752,
      "lament": 5753,
      "Ġmachine": 5754,
      "Ġ300": 5755,
      "Ġtravel": 5756,
      "Ġnode": 5757,
      "Ġprocesses": 5758,
      "Ġteam": 5759,
      "ĠMat": 5760,
      "Ġfriend": 5761,
      "zz": 5762,
      "lad": 5763,
      "ï¿½": 5764,
      "Ġ()": 5765,
      "iat": 5766,
      "EX": 5767,
      "Ġtaking": 5768,
      "Ġshape": 5769,
      "Ġreduc": 5770,
      "Ġaffect": 5771,
      "ĠCr": 5772,
      "ĠBu": 5773,
      "Ġestablished": 5774,
      "Ġapproximately": 5775,
      "å°": 5776,
      "ocal": 5777,
      "');": 5778,
      "Ġspirit": 5779,
      "Ġmonitor": 5780,
      "stract": 5781,
      "%)": 5782,
      "ĠDav": 5783,
      "Ġinstead": 5784,
      "ĠBen": 5785,
      "ÑĬÑĢ": 5786,
      "covery": 5787,
      "Ġcomposition": 5788,
      "tification": 5789,
      "ãģĹ": 5790,
      "ĠWhile": 5791,
      "Ãªte": 5792,
      "Ġay": 5793,
      "ensch": 5794,
      "æĺ": 5795,
      "Ġforward": 5796,
      "point": 5797,
      "Ġbig": 5798,
      "tÃ³": 5799,
      "abb": 5800,
      "Ġvy": 5801,
      "ommission": 5802,
      "ĠÎ³Î¹Î±": 5803,
      "Ġsy": 5804,
      "entre": 5805,
      "ĠRed": 5806,
      "ÏĥÎ¼": 5807,
      "Ġcours": 5808,
      "alog": 5809,
      "este": 5810,
      "Ġ95": 5811,
      "Ġdefault": 5812,
      "Ġrecent": 5813,
      "ĠÐ¿ÑĢÐµÐ´": 5814,
      "Ġfactor": 5815,
      "stat": 5816,
      "kov": 5817,
      "ĠĠĠĠĠĠĠĠĠĠĠĠĠĠĠĠĠ": 5818,
      "Ġvideo": 5819,
      "abilities": 5820,
      "ommen": 5821,
      "Am": 5822,
      "Î¶": 5823,
      "uta": 5824,
      "Ġvom": 5825,
      "Ġsteps": 5826,
      "ieux": 5827,
      "ding": 5828,
      "Ñ£": 5829,
      "ommes": 5830,
      "Ġtoute": 5831,
      "ĠdiffÃ©r": 5832,
      "aily": 5833,
      "Ġcontaining": 5834,
      "ĠÏĢÎ¿Ïħ": 5835,
      "ĠÃ©gal": 5836,
      "Ġfur": 5837,
      "ĠDig": 5838,
      "ĠÎ½Î±": 5839,
      "Ġcompens": 5840,
      "yright": 5841,
      "ÑģÑĤÐ²": 5842,
      "Ġbelieve": 5843,
      "ĠSl": 5844,
      "anje": 5845,
      "Ġagreement": 5846,
      "Ã¤ll": 5847,
      "uste": 5848,
      "place": 5849,
      "kg": 5850,
      "ensions": 5851,
      "aled": 5852,
      "Ġ101": 5853,
      "Ġnames": 5854,
      "Ġmir": 5855,
      "Ġdoit": 5856,
      "2011": 5857,
      "Ġvale": 5858,
      "Ġnem": 5859,
      "ĠMus": 5860,
      "Ð¼Ðµ": 5861,
      "Ġshowed": 5862,
      "Op": 5863,
      "Ġregular": 5864,
      "Ġbon": 5865,
      "2016": 5866,
      "ï¼Ī": 5867,
      "ĠdaÃŁ": 5868,
      "Ġ49": 5869,
      "inct": 5870,
      "Ġbey": 5871,
      "Ġpaid": 5872,
      "ULL": 5873,
      "ï¼ī": 5874,
      "Def": 5875,
      "Ġdifficult": 5876,
      "Ġcombination": 5877,
      "Ġappropriate": 5878,
      "Ġbez": 5879,
      "oster": 5880,
      "ĠNr": 5881,
      "Ġconsid": 5882,
      "Ã´le": 5883,
      "OO": 5884,
      "Ġ85": 5885,
      "Ġsecurity": 5886,
      "abase": 5887,
      "Ġonline": 5888,
      "Ġcollec": 5889,
      "ĠAtt": 5890,
      "ĠPublic": 5891,
      "Ed": 5892,
      "._": 5893,
      "ĠSam": 5894,
      "à±į": 5895,
      "rec": 5896,
      "Ġmedic": 5897,
      "Ġinnov": 5898,
      "Ġ65": 5899,
      "ĠDist": 5900,
      "ĠMart": 5901,
      "ĠThen": 5902,
      "EF": 5903,
      "PA": 5904,
      "Ġ51": 5905,
      "Ġreach": 5906,
      "Ġsle": 5907,
      "ØĮ": 5908,
      "LA": 5909,
      "ĠÏĩ": 5910,
      "Ġtrade": 5911,
      "range": 5912,
      "Ġunivers": 5913,
      "Ġwire": 5914,
      "Ġautre": 5915,
      "Ġsense": 5916,
      "known": 5917,
      "ÃŃm": 5918,
      "hab": 5919,
      "ĠØ³": 5920,
      "ĠET": 5921,
      "Ġwent": 5922,
      "Ġ120": 5923,
      "dos": 5924,
      "eu": 5925,
      "Ġswitch": 5926,
      "Ġfel": 5927,
      "Ã¤Ã¤": 5928,
      "Ġquod": 5929,
      "Ġnil": 5930,
      "Ġimages": 5931,
      "Ġratio": 5932,
      "ĠnÃ©cess": 5933,
      "Ġcarried": 5934,
      "ieurs": 5935,
      "Rec": 5936,
      "Å¿e": 5937,
      "âĢĶâĢĶ": 5938,
      "Ġ64": 5939,
      "Ġraz": 5940,
      "Ġlate": 5941,
      "ĠAccording": 5942,
      "Ġtor": 5943,
      "Ġchannel": 5944,
      "Ġfilter": 5945,
      "'ve": 5946,
      "ÑĤÑĥ": 5947,
      "lang": 5948,
      "Ġrules": 5949,
      "ĠNovember": 5950,
      "nn": 5951,
      "Ġrequirements": 5952,
      "ribution": 5953,
      "Ġmap": 5954,
      "Ġpoly": 5955,
      "that": 5956,
      "ĠØ£": 5957,
      "ÎŃÏĤ": 5958,
      "tag": 5959,
      "bes": 5960,
      "With": 5961,
      "related": 5962,
      "cf": 5963,
      "Ġbrought": 5964,
      "activ": 5965,
      "2018": 5966,
      "iÃ¨re": 5967,
      "Ġinsp": 5968,
      "uelle": 5969,
      "Ġperspec": 5970,
      "Ġagent": 5971,
      "æĪ": 5972,
      "Ġcet": 5973,
      "quer": 5974,
      "Ġwhite": 5975,
      "Ġmg": 5976,
      "Ġlegisl": 5977,
      "ĠdÃ©f": 5978,
      "Ġdiff": 5979,
      "Ġdefendant": 5980,
      "Ġaw": 5981,
      "Äįn": 5982,
      "Ġcham": 5983,
      "rum": 5984,
      "leich": 5985,
      "Ġplatform": 5986,
      "rig": 5987,
      "Ġcarbon": 5988,
      "ĠFirst": 5989,
      "ĠNow": 5990,
      "Ġoc": 5991,
      "Ġimmedi": 5992,
      "ĠDu": 5993,
      "Ġ<<": 5994,
      "ĠLondon": 5995,
      "Ġfire": 5996,
      "enz": 5997,
      "Ġnad": 5998,
      "Pl": 5999,
      "ymer": 6000,
      "Ġstation": 6001,
      "ĠkÃ¶": 6002,
      "ply": 6003,
      "roid": 6004,
      "Ġtempor": 6005,
      "heit": 6006,
      "ĠTur": 6007,
      "Ġallows": 6008,
      "Ġbran": 6009,
      "empor": 6010,
      "ĠUN": 6011,
      "Ġestablish": 6012,
      "pack": 6013,
      "ĠTH": 6014,
      "Ġsist": 6015,
      "Su": 6016,
      "Ġfoot": 6017,
      "Ġ54": 6018,
      "ĠCD": 6019,
      "ĠFebru": 6020,
      "ÑīÐ¸": 6021,
      "atively": 6022,
      "Ġcz": 6023,
      "ÐµÐ½Ð¸Ñı": 6024,
      "Ãªtre": 6025,
      "eler": 6026,
      "ĠdÃ©l": 6027,
      "Bl": 6028,
      "Ġsusp": 6029,
      "Ste": 6030,
      "Ġalter": 6031,
      "Ġcompanies": 6032,
      "aker": 6033,
      "Ġhabit": 6034,
      "âĢ²": 6035,
      "ĠeuropÃ©": 6036,
      "oding": 6037,
      "Ġconstant": 6038,
      "ador": 6039,
      "Ġdra": 6040,
      "×§": 6041,
      "enty": 6042,
      "Ġsources": 6043,
      "Ġdiscover": 6044,
      "Ġfixed": 6045,
      "ÅĪ": 6046,
      "ball": 6047,
      "Ġvoltage": 6048,
      "Ġpublished": 6049,
      "Ġdepend": 6050,
      "Ġsera": 6051,
      "ĠES": 6052,
      "ÎµÎ½": 6053,
      "sa": 6054,
      "hm": 6055,
      "eft": 6056,
      "Ġfamil": 6057,
      "ĠGro": 6058,
      "terior": 6059,
      "Ġenter": 6060,
      "áĥĺáĥ": 6061,
      "Ġclinical": 6062,
      "kel": 6063,
      "ORT": 6064,
      "Ġpartie": 6065,
      "ATE": 6066,
      "Ġequip": 6067,
      "gs": 6068,
      ".:": 6069,
      "Ġjak": 6070,
      "ĠÑĢ": 6071,
      "Ġserver": 6072,
      "active": 6073,
      "ĠHealth": 6074,
      "ĠÃŃ": 6075,
      "ÑĪÐ¸": 6076,
      "Ġstress": 6077,
      "imi": 6078,
      "rations": 6079,
      "ingu": 6080,
      "Ð·Ð¸": 6081,
      "Ġdeveloped": 6082,
      "Ġkont": 6083,
      "Ġplaintiff": 6084,
      "kom": 6085,
      "Ġconsult": 6086,
      "áĥĶáĥ": 6087,
      "alla": 6088,
      "ĠPaul": 6089,
      "Ġidentified": 6090,
      "izz": 6091,
      "Ġsubstrate": 6092,
      "Euro": 6093,
      "Ġstd": 6094,
      "map": 6095,
      "ĠMais": 6096,
      "Ġtell": 6097,
      "Ġesp": 6098,
      "Ġmand": 6099,
      "itate": 6100,
      "eful": 6101,
      "ĠÃ³": 6102,
      "Ġways": 6103,
      "AA": 6104,
      "è¡": 6105,
      "ĠWash": 6106,
      "Ġaccomp": 6107,
      "Ġcomment": 6108,
      "Ġavoir": 6109,
      "Ġbem": 6110,
      "èĢ": 6111,
      "amment": 6112,
      "Ġsex": 6113,
      "CD": 6114,
      "ĠÎ±ÏĢÏĮ": 6115,
      "Ġtransmission": 6116,
      "ĠBri": 6117,
      "Ġusers": 6118,
      "Ġconsequ": 6119,
      "ÎµÏħ": 6120,
      "ĠÑį": 6121,
      "ĠGroup": 6122,
      "Ðļ": 6123,
      "IST": 6124,
      "Ġfeet": 6125,
      "Ġtend": 6126,
      "ao": 6127,
      "Ġstory": 6128,
      "Ġenh": 6129,
      "ĠPal": 6130,
      "ĠÎ»": 6131,
      "Ġconserv": 6132,
      "ĠOctober": 6133,
      "Ġfarm": 6134,
      "idas": 6135,
      "icial": 6136,
      "tri": 6137,
      "ancy": 6138,
      "Ġ53": 6139,
      "ruit": 6140,
      "Ġkur": 6141,
      "structions": 6142,
      "valid": 6143,
      "Ġmove": 6144,
      "Ġinstrument": 6145,
      "ĠVers": 6146,
      "Ġleading": 6147,
      "Ġrepro": 6148,
      "Ġhistorical": 6149,
      "But": 6150,
      "Ġ56": 6151,
      "Ġsold": 6152,
      "Ġinfl": 6153,
      "Request": 6154,
      "ĠPRO": 6155,
      "Ġpolitical": 6156,
      "Ġkan": 6157,
      "Ġencour": 6158,
      "Ġletter": 6159,
      "Ġinhib": 6160,
      "Ġalmost": 6161,
      "ĠInternational": 6162,
      "Ġsensor": 6163,
      "Ġconven": 6164,
      "tier": 6165,
      "Ã©ho": 6166,
      "df": 6167,
      "apan": 6168,
      "iring": 6169,
      "ĠUs": 6170,
      "Ġincid": 6171,
      "anced": 6172,
      "Ġbecame": 6173,
      "atin": 6174,
      "oria": 6175,
      "Ġcit": 6176,
      "Ġpurs": 6177,
      "Path": 6178,
      "Ġgef": 6179,
      "utive": 6180,
      "Ġstage": 6181,
      "Field": 6182,
      "ĠResearch": 6183,
      "ĠAv": 6184,
      "Ġmovement": 6185,
      "Ġpul": 6186,
      "occ": 6187,
      "Ġalgorith": 6188,
      "hy": 6189,
      "Ø·": 6190,
      "rica": 6191,
      "vert": 6192,
      "ĠEX": 6193,
      "ãģ¦": 6194,
      "×Ĺ": 6195,
      "Ðł": 6196,
      "Ġcin": 6197,
      "Ġintr": 6198,
      "Ġdroits": 6199,
      "Ã¤h": 6200,
      "Ġefforts": 6201,
      "ports": 6202,
      "ĠData": 6203,
      "Ð³Ð¸": 6204,
      "ĠInt": 6205,
      "Ġstar": 6206,
      "Ġcritical": 6207,
      "Size": 6208,
      "ests": 6209,
      "OU": 6210,
      "Ġroll": 6211,
      "oute": 6212,
      "uncil": 6213,
      "ÃŃcul": 6214,
      "à¸²": 6215,
      "Ġye": 6216,
      "Aut": 6217,
      "lands": 6218,
      "ME": 6219,
      "Ġcreated": 6220,
      "Ġsau": 6221,
      "Ġali": 6222,
      "']": 6223,
      "clar": 6224,
      "idades": 6225,
      "aur": 6226,
      "ĠGra": 6227,
      "box": 6228,
      "Ġgran": 6229,
      "Ġconvention": 6230,
      "à¶": 6231,
      "iform": 6232,
      "Ġmeeting": 6233,
      "mit": 6234,
      "Ġdifferences": 6235,
      "Ġmaximum": 6236,
      "iek": 6237,
      "ãģĦ": 6238,
      "Ġgegen": 6239,
      "Ġhost": 6240,
      "resh": 6241,
      "ĠDES": 6242,
      "Inter": 6243,
      "cast": 6244,
      "Ġviv": 6245,
      "Ġopinion": 6246,
      "2019": 6247,
      "Ġwhom": 6248,
      "vet": 6249,
      "Ġindustry": 6250,
      "eline": 6251,
      "ocol": 6252,
      "ĠÑħ": 6253,
      "ÈĽi": 6254,
      "ĠHand": 6255,
      "cio": 6256,
      "Ġnavig": 6257,
      "oration": 6258,
      "Ġrapid": 6259,
      "×¡": 6260,
      "Ġtant": 6261,
      "ĠIss": 6262,
      "El": 6263,
      "ĠHa": 6264,
      "Ġnothing": 6265,
      "Ġampl": 6266,
      "ãģ§": 6267,
      "Ġexisting": 6268,
      "link": 6269,
      "vin": 6270,
      "Ġindustri": 6271,
      "à³į": 6272,
      "Config": 6273,
      "Figure": 6274,
      "ettre": 6275,
      "Ġcharacteristics": 6276,
      "Ġdeliver": 6277,
      "erne": 6278,
      "Ã¤hr": 6279,
      "If": 6280,
      "Ġoverall": 6281,
      "Ġdirec": 6282,
      "Ġneeded": 6283,
      "New": 6284,
      "Äģs": 6285,
      "Ġdecid": 6286,
      "cha": 6287,
      "2015": 6288,
      "Ġspeed": 6289,
      "Ġremain": 6290,
      "ĠNa": 6291,
      "Pre": 6292,
      "Ġsed": 6293,
      "isher": 6294,
      "())": 6295,
      "Class": 6296,
      "Ġcompte": 6297,
      "Ġexact": 6298,
      "Ġappreci": 6299,
      "ĠGes": 6300,
      "Ġbir": 6301,
      "heid": 6302,
      "ĠÐ¢": 6303,
      "ental": 6304,
      "Øµ": 6305,
      "ĠWil": 6306,
      "Ġfib": 6307,
      "Ġinner": 6308,
      "Ġaspects": 6309,
      "unn": 6310,
      "Ġformal": 6311,
      "Write": 6312,
      "×¤": 6313,
      "title": 6314,
      "Ġsoon": 6315,
      "Fig": 6316,
      "Ġproduced": 6317,
      "ÃŁe": 6318,
      "issement": 6319,
      "doi": 6320,
      "ĠWorld": 6321,
      "Date": 6322,
      "eks": 6323,
      "olic": 6324,
      "Ð¿Ð¸": 6325,
      "tish": 6326,
      "Â®": 6327,
      "Ġbeyond": 6328,
      "Ġgem": 6329,
      "Ġ58": 6330,
      "éĢ": 6331,
      "Ġgli": 6332,
      "Ġonder": 6333,
      "Ġshares": 6334,
      "OV": 6335,
      "ĠktÃ³": 6336,
      "à¤¸": 6337,
      "enta": 6338,
      "Ġwidth": 6339,
      "ĠAnn": 6340,
      "Ġlaws": 6341,
      "Ġera": 6342,
      "Ġstatements": 6343,
      "Ġliving": 6344,
      "Ġreduce": 6345,
      "ĠÐ²ÑĬ": 6346,
      "Ġjudgment": 6347,
      "Ġdil": 6348,
      "From": 6349,
      "ÅŁ": 6350,
      "ĠEngland": 6351,
      "ĠAT": 6352,
      "Ġexplore": 6353,
      "Ġtransl": 6354,
      "Ġfat": 6355,
      "Ġcorpor": 6356,
      "Ġnegative": 6357,
      "Ser": 6358,
      "ĠÐ±Ñĭ": 6359,
      "auti": 6360,
      "CON": 6361,
      "Ġtrois": 6362,
      "isten": 6363,
      "Ġtrack": 6364,
      "plo": 6365,
      "iance": 6366,
      "Ġproblems": 6367,
      "Ġdemande": 6368,
      "elen": 6369,
      "avy": 6370,
      "ÑĢÑĭ": 6371,
      "rod": 6372,
      "Ġsqu": 6373,
      "ĠOver": 6374,
      "Em": 6375,
      "Ġrule": 6376,
      "Ġreve": 6377,
      "poses": 6378,
      "undred": 6379,
      "Ġavant": 6380,
      "ĠPart": 6381,
      "acional": 6382,
      "Ġspecified": 6383,
      "AU": 6384,
      "×Ļ×Ŀ": 6385,
      "alysis": 6386,
      "Ġeffet": 6387,
      "lege": 6388,
      "Index": 6389,
      "ĠQue": 6390,
      "oly": 6391,
      "Ġnotice": 6392,
      "Ġapply": 6393,
      "ĠMit": 6394,
      "Ġweb": 6395,
      "Ġ62": 6396,
      "Ġhaben": 6397,
      "Ġcool": 6398,
      "Ġoptical": 6399,
      "ĠTer": 6400,
      "Ġstore": 6401,
      "Ġfisc": 6402,
      "Ġouv": 6403,
      "ÑģÑĤÐ¾": 6404,
      "doc": 6405,
      "prÃ©sent": 6406,
      "Ġclient": 6407,
      "MP": 6408,
      "uman": 6409,
      "ĠÐĵ": 6410,
      "uable": 6411,
      "ĠBoard": 6412,
      "Ġregions": 6413,
      "ibli": 6414,
      "Ġsales": 6415,
      "dim": 6416,
      "Ġresulting": 6417,
      "ĠÃ©galement": 6418,
      "ferences": 6419,
      "Ġtherm": 6420,
      "nek": 6421,
      "abs": 6422,
      "prim": 6423,
      "âĢĮ": 6424,
      "func": 6425,
      "Ġ66": 6426,
      "ĠJud": 6427,
      "ĠIR": 6428,
      "Event": 6429,
      "ellig": 6430,
      "Ġarticles": 6431,
      "ĠRem": 6432,
      "Pub": 6433,
      "Ġthick": 6434,
      "euro": 6435,
      "Ġgenerated": 6436,
      "entially": 6437,
      "antit": 6438,
      "Ð¾Ð»ÑĮ": 6439,
      "Ġceux": 6440,
      "Ġthrow": 6441,
      "Ġcore": 6442,
      "ÅĤo": 6443,
      "Ġtion": 6444,
      "rov": 6445,
      "×Ľ": 6446,
      "Ġoutside": 6447,
      "idade": 6448,
      "Ġdoing": 6449,
      "Ġplaced": 6450,
      "Î¼Î±ÏĦ": 6451,
      "Ġsuitable": 6452,
      "right": 6453,
      "2010": 6454,
      "rin": 6455,
      "2017": 6456,
      "Ãªn": 6457,
      "uced": 6458,
      "éģ": 6459,
      "ÙĬØ©": 6460,
      "à¦¿": 6461,
      "Ġdir": 6462,
      "ìĹ": 6463,
      "ï¬": 6464,
      "Ġcultural": 6465,
      "Ġassembly": 6466,
      "Ġsamples": 6467,
      "Ġfeature": 6468,
      "Il": 6469,
      "Ġimprove": 6470,
      "ĠÐ´Ð¾": 6471,
      "prises": 6472,
      "hom": 6473,
      "ĠDet": 6474,
      "agram": 6475,
      "aba": 6476,
      "Ġpremier": 6477,
      "udi": 6478,
      "IX": 6479,
      "Ġpolic": 6480,
      "Ġexternal": 6481,
      "Ġphen": 6482,
      "Î¿Î½": 6483,
      "2008": 6484,
      "-,": 6485,
      "fd": 6486,
      "Ġextract": 6487,
      "Ġball": 6488,
      "Int": 6489,
      "Ġprod": 6490,
      "ĠTherefore": 6491,
      "ĠView": 6492,
      "Ġtour": 6493,
      "abilitÃ©": 6494,
      "Ġbehavior": 6495,
      "ĠPresident": 6496,
      "imento": 6497,
      "Ġ1999": 6498,
      "ifer": 6499,
      "ĠDans": 6500,
      "ĠcrÃ©": 6501,
      "ieu": 6502,
      "cor": 6503,
      "label": 6504,
      "Ð¾Ð´Ð°": 6505,
      "vid": 6506,
      "estern": 6507,
      "Ġconcept": 6508,
      "Ġmeaning": 6509,
      "truct": 6510,
      "Ġpromot": 6511,
      "Ġbod": 6512,
      "INE": 6513,
      "Ġwelche": 6514,
      "BS": 6515,
      "pat": 6516,
      "anv": 6517,
      "Ġdocuments": 6518,
      "Ġotherwise": 6519,
      "Ġmotor": 6520,
      "ĠGet": 6521,
      "Ġaspect": 6522,
      "urt": 6523,
      "Ġtexte": 6524,
      "los": 6525,
      "ÏĥÎµÎ¹": 6526,
      "itect": 6527,
      "ouvern": 6528,
      "Map": 6529,
      "á¿": 6530,
      "Ġej": 6531,
      "Ãºblic": 6532,
      "Ġstructures": 6533,
      "Ġtools": 6534,
      "ĠEng": 6535,
      "Ġaug": 6536,
      "Ġ99": 6537,
      "Ġsurround": 6538,
      "Ġrequires": 6539,
      "ĠNet": 6540,
      "uty": 6541,
      "Ġmatch": 6542,
      "iale": 6543,
      "Ġpreviously": 6544,
      "ska": 6545,
      "Ġfollowed": 6546,
      "ĠAp": 6547,
      "ĠOh": 6548,
      "à·": 6549,
      "has": 6550,
      "pass": 6551,
      "Ġ});": 6552,
      "Bu": 6553,
      "ĠIr": 6554,
      "down": 6555,
      "ieder": 6556,
      "summary": 6557,
      "Ġreserv": 6558,
      "ÑģÐ°": 6559,
      "was": 6560,
      "Ġcomes": 6561,
      "elijk": 6562,
      "Ġmig": 6563,
      "Ġbor": 6564,
      "Ġbalance": 6565,
      "cks": 6566,
      "velopp": 6567,
      "ĠLouis": 6568,
      "ĠÏĮ": 6569,
      "Ð´Ñĥ": 6570,
      "Ġpuis": 6571,
      "×ķ×ª": 6572,
      "Ġprze": 6573,
      "Ġpent": 6574,
      "jn": 6575,
      "Ġyield": 6576,
      "ĠmÃ©d": 6577,
      "Ġjob": 6578,
      "ameter": 6579,
      "elo": 6580,
      "CP": 6581,
      "Ġrapp": 6582,
      "Context": 6583,
      "ĠDan": 6584,
      "Ġsubsequ": 6585,
      "Tra": 6586,
      "oot": 6587,
      "Ġâī": 6588,
      "rog": 6589,
      "umer": 6590,
      "under": 6591,
      "Ġcenter": 6592,
      "input": 6593,
      "atum": 6594,
      "Ġalthough": 6595,
      "azzjoni": 6596,
      "Ġmusic": 6597,
      "Ġartikel": 6598,
      "Ġru": 6599,
      "Ã³s": 6600,
      "How": 6601,
      "lio": 6602,
      "ĠÎºÎ±ÏĦ": 6603,
      "Ġconstruct": 6604,
      "Ġbox": 6605,
      "Ġsort": 6606,
      "ycle": 6607,
      "INT": 6608,
      "Ġminutes": 6609,
      "Ġlands": 6610,
      "sur": 6611,
      "Ġtool": 6612,
      "ĠRich": 6613,
      "Ġbef": 6614,
      "joy": 6615,
      "Ġenvironmental": 6616,
      "Out": 6617,
      "ĠCong": 6618,
      "ech": 6619,
      "âĢĳ": 6620,
      "quel": 6621,
      "Ġcelui": 6622,
      "Ġpractices": 6623,
      "äºº": 6624,
      "rim": 6625,
      "emi": 6626,
      "Ġdeli": 6627,
      "Ġbad": 6628,
      "Ġbenefits": 6629,
      "Ġhyp": 6630,
      "Ø£": 6631,
      "ãģĮ": 6632,
      "posit": 6633,
      "Ġmanif": 6634,
      "Ġexhib": 6635,
      "Ġcriter": 6636,
      "ocy": 6637,
      "ateurs": 6638,
      "ĠCouncil": 6639,
      "ä¸Ģ": 6640,
      "osta": 6641,
      "tid": 6642,
      "ĠÑı": 6643,
      "px": 6644,
      "Ġagg": 6645,
      "Ġcollection": 6646,
      "Ġ150": 6647,
      "ĠCam": 6648,
      "ĠChina": 6649,
      "ĠDa": 6650,
      "ÑĹ": 6651,
      "ĠÎ¸": 6652,
      "titude": 6653,
      "Ġdesigned": 6654,
      "Ġà´": 6655,
      "Ġstreet": 6656,
      "cie": 6657,
      "Ġ72": 6658,
      "Ġchaque": 6659,
      "à§ĩ": 6660,
      "ĠÑģÐ°": 6661,
      "rl": 6662,
      "ĠÐĺ": 6663,
      "ĠHouse": 6664,
      "æŃ": 6665,
      "Ġ2023": 6666,
      "autre": 6667,
      "max": 6668,
      "OW": 6669,
      "Ġprix": 6670,
      "Ġproduce": 6671,
      "Ġtitle": 6672,
      "ĠLaw": 6673,
      "Ġvisit": 6674,
      "ĠÎºÎ±": 6675,
      "oking": 6676,
      "ĠÃľ": 6677,
      "Ġitem": 6678,
      "Ġpes": 6679,
      "iro": 6680,
      "Ġzw": 6681,
      "Ġ57": 6682,
      "ĠStat": 6683,
      "length": 6684,
      "Ġlive": 6685,
      "ync": 6686,
      "Ġseek": 6687,
      "Ġ111": 6688,
      "Ġoption": 6689,
      "Ġpict": 6690,
      "Ġcommission": 6691,
      "Ġprojet": 6692,
      "ĠIT": 6693,
      "going": 6694,
      "unicip": 6695,
      "long": 6696,
      "ECT": 6697,
      "Ġsometimes": 6698,
      "Ġspl": 6699,
      "Ref": 6700,
      "Ġidea": 6701,
      "Ġcompet": 6702,
      "jud": 6703,
      "Ġlonger": 6704,
      "Ġprepared": 6705,
      "ĠLeg": 6706,
      "Ġrandom": 6707,
      "Ġfully": 6708,
      "ismo": 6709,
      "Ġvig": 6710,
      "Ġactually": 6711,
      "istry": 6712,
      "ĠJames": 6713,
      "ĠUnter": 6714,
      "Ã³d": 6715,
      "Ġlarger": 6716,
      "ows": 6717,
      "mal": 6718,
      "Ġhands": 6719,
      "isiÃ³n": 6720,
      "Ġoh": 6721,
      "Ġved": 6722,
      "Ġmois": 6723,
      "utt": 6724,
      "bin": 6725,
      "comes": 6726,
      "enge": 6727,
      "Ġdepuis": 6728,
      "enÃŃ": 6729,
      "Ä«bas": 6730,
      "Å¡an": 6731,
      "Ġisol": 6732,
      "Ġemo": 6733,
      "ÖĤ": 6734,
      "à¤µ": 6735,
      "×ĺ": 6736,
      "illing": 6737,
      "-.": 6738,
      "ocra": 6739,
      "ĠCode": 6740,
      "Ġmeasured": 6741,
      "lick": 6742,
      "ĠKe": 6743,
      "uting": 6744,
      "ĠArch": 6745,
      "uster": 6746,
      "Ġtam": 6747,
      "Ġexamples": 6748,
      "Ġsound": 6749,
      "ĠAP": 6750,
      "Ġpeuvent": 6751,
      "Lo": 6752,
      "itet": 6753,
      "Ø³Øª": 6754,
      "ulti": 6755,
      "Ġreaction": 6756,
      "Ġforeign": 6757,
      "¸Ĺ": 6758,
      "uffer": 6759,
      "Ġwit": 6760,
      "ponent": 6761,
      "Ð¿Ð°": 6762,
      "Ġpoor": 6763,
      "Ġseason": 6764,
      "Ġpopular": 6765,
      "ĠStreet": 6766,
      "ACT": 6767,
      "AY": 6768,
      "Ġreferred": 6769,
      "Ġreli": 6770,
      "Ġ112": 6771,
      "Service": 6772,
      "Ġsafety": 6773,
      "Ġton": 6774,
      "isp": 6775,
      "Ġlooking": 6776,
      "Ġdomain": 6777,
      "ffer": 6778,
      "Ġdre": 6779,
      "Ġfiled": 6780,
      "Ġprinciples": 6781,
      "illet": 6782,
      "Ġblack": 6783,
      "ERT": 6784,
      ",'": 6785,
      "eness": 6786,
      "level": 6787,
      "Ġcollabor": 6788,
      "Ġpsych": 6789,
      "Ġprices": 6790,
      "Ġopening": 6791,
      "iente": 6792,
      "idos": 6793,
      "kin": 6794,
      "Ġcounty": 6795,
      "Ġsays": 6796,
      "ĠAmerica": 6797,
      "Ġdistrict": 6798,
      "ĠSP": 6799,
      "Ġdegree": 6800,
      "Ġrad": 6801,
      "Ver": 6802,
      "à¤®": 6803,
      "ÏĦÎ±": 6804,
      "onduct": 6805,
      "Node": 6806,
      "certain": 6807,
      "Ġlub": 6808,
      "kre": 6809,
      "Ġremains": 6810,
      "IES": 6811,
      "Î¹ÏĤ": 6812,
      "Ġdemonstr": 6813,
      "mas": 6814,
      "Ġpurposes": 6815,
      "Ġavoid": 6816,
      "Ġwr": 6817,
      "Ġ61": 6818,
      "Ġtan": 6819,
      "Ġitems": 6820,
      "imes": 6821,
      "Î¯Î±ÏĤ": 6822,
      "ĠKar": 6823,
      "Ġabsol": 6824,
      "termin": 6825,
      "ĠUr": 6826,
      "iny": 6827,
      "attle": 6828,
      "ilor": 6829,
      "Ġrom": 6830,
      "aci": 6831,
      "ĠÄįl": 6832,
      "Ġdetection": 6833,
      "Ġquick": 6834,
      "OB": 6835,
      "Ġud": 6836,
      "æķ": 6837,
      "KE": 6838,
      "Ġpersons": 6839,
      "ditionally": 6840,
      "init": 6841,
      "Ġdess": 6842,
      "à°¿": 6843,
      "Ġregister": 6844,
      "stances": 6845,
      "Ġquite": 6846,
      "ĠÙĨ": 6847,
      "ĠAM": 6848,
      "Ġsv": 6849,
      "well": 6850,
      "Ġsell": 6851,
      "Ð»Ñĥ": 6852,
      "Ġrob": 6853,
      "ĠSection": 6854,
      "Îĳ": 6855,
      "Ġnut": 6856,
      "Ġclean": 6857,
      "case": 6858,
      "Ġplants": 6859,
      "Î¼ÎŃÎ½": 6860,
      "ĠChurch": 6861,
      "ĠCop": 6862,
      "à¸²à¸": 6863,
      "rupt": 6864,
      "isme": 6865,
      "itis": 6866,
      "\"],": 6867,
      "care": 6868,
      "What": 6869,
      "Ġsociety": 6870,
      "Ġshap": 6871,
      "Ġsignals": 6872,
      "Ð²Ð°Ð½Ðµ": 6873,
      "atre": 6874,
      "Ġfont": 6875,
      "Ġkoh": 6876,
      "Î¹Î¿": 6877,
      "error": 6878,
      "autres": 6879,
      "embl": 6880,
      "ajo": 6881,
      "Ð½Ñĥ": 6882,
      "kow": 6883,
      "Ġcapacity": 6884,
      "ĠHigh": 6885,
      "Over": 6886,
      "zione": 6887,
      "ĠÄĳ": 6888,
      "Ġstated": 6889,
      "Ġcolon": 6890,
      "Code": 6891,
      "Ã¼t": 6892,
      "Ġwindow": 6893,
      "chi": 6894,
      "Ġ[]": 6895,
      "Ġug": 6896,
      "fel": 6897,
      "ĠFurthermore": 6898,
      "Mar": 6899,
      "So": 6900,
      "Me": 6901,
      "glich": 6902,
      "ĠMag": 6903,
      "Ġpredict": 6904,
      "ĠPour": 6905,
      "ĠFebruary": 6906,
      "itig": 6907,
      ".).": 6908,
      "ÑīÐµ": 6909,
      "aper": 6910,
      "Ġexperiences": 6911,
      "Ġinvestment": 6912,
      "process": 6913,
      "ĠBal": 6914,
      "Ġll": 6915,
      "tiss": 6916,
      "api": 6917,
      "};": 6918,
      "Ġcontains": 6919,
      "ded": 6920,
      "Ø®": 6921,
      "Ġimplic": 6922,
      "Ð¶Ð°": 6923,
      "ĠPor": 6924,
      "Ð¾Ñģ": 6925,
      "cal": 6926,
      "config": 6927,
      "Ġant": 6928,
      "Ġrelationships": 6929,
      "uen": 6930,
      "uteur": 6931,
      "Ġextre": 6932,
      "Ġhundred": 6933,
      "ÏĦÎ¹Îº": 6934,
      "Ġsolutions": 6935,
      "ĠTechn": 6936,
      "Ġwrite": 6937,
      "rÃ¤": 6938,
      "asons": 6939,
      "Ġnumbers": 6940,
      "ÎŁ": 6941,
      "Ġger": 6942,
      "pti": 6943,
      "odo": 6944,
      "aan": 6945,
      "can": 6946,
      "Ġrelation": 6947,
      "ĠWashington": 6948,
      "[]": 6949,
      "Ġasked": 6950,
      "Ġnob": 6951,
      "etz": 6952,
      "Ġsan": 6953,
      "ĠÐķ": 6954,
      "ĠEnd": 6955,
      "Ġbroad": 6956,
      "Ġvid": 6957,
      "number": 6958,
      "ibles": 6959,
      "ĠAlex": 6960,
      "åĬ": 6961,
      "Message": 6962,
      "bra": 6963,
      "istory": 6964,
      "ĠVir": 6965,
      "ĠCharles": 6966,
      "Ġmainten": 6967,
      "Ġmagne": 6968,
      "Ġroad": 6969,
      "uction": 6970,
      "phas": 6971,
      "nung": 6972,
      "after": 6973,
      "Ġreceiving": 6974,
      "à®¿": 6975,
      "ÅĽÄĩ": 6976,
      "width": 6977,
      "Ġround": 6978,
      "Ġheight": 6979,
      "à¤ª": 6980,
      "cis": 6981,
      "abled": 6982,
      "ĠTR": 6983,
      "Ġcaused": 6984,
      "ÅĤy": 6985,
      "SI": 6986,
      "GE": 6987,
      "Ġhal": 6988,
      "Ġconfiguration": 6989,
      "ogy": 6990,
      "Ġterminal": 6991,
      "allel": 6992,
      "Ð½Ð¾ÑģÑĤ": 6993,
      "ĠVor": 6994,
      "Ġtouch": 6995,
      "erie": 6996,
      "tile": 6997,
      "Ġmehr": 6998,
      "ÅĻÃŃ": 6999,
      "Ġble": 7000,
      "olean": 7001,
      "Ġflex": 7002,
      "Ġuseful": 7003,
      "Ġpassed": 7004,
      "itized": 7005,
      "Ġassum": 7006,
      "Ġthous": 7007,
      "FA": 7008,
      "Ġbenefit": 7009,
      "tien": 7010,
      "cap": 7011,
      "Ġstim": 7012,
      "ÐºÑĥ": 7013,
      "Ġdrive": 7014,
      "Ġsud": 7015,
      "2006": 7016,
      "ĠDNA": 7017,
      "vity": 7018,
      "location": 7019,
      "Ġcelle": 7020,
      "ĠRom": 7021,
      "enf": 7022,
      "Ġcui": 7023,
      "ĠOther": 7024,
      "ÑĨÐµ": 7025,
      "Ġrespective": 7026,
      "Ġpatterns": 7027,
      "ees": 7028,
      "eces": 7029,
      "ĠÐ¿Ð¾Ð´": 7030,
      "rift": 7031,
      "result": 7032,
      "â¸Ĺ": 7033,
      "Ġtrust": 7034,
      "ords": 7035,
      "ĠâĤ¬": 7036,
      "Ġcm": 7037,
      "Ġihr": 7038,
      "å·": 7039,
      "Ġ63": 7040,
      "Ġhear": 7041,
      "Ġcontinued": 7042,
      "Log": 7043,
      "lib": 7044,
      "Ġconcentration": 7045,
      "Ġ59": 7046,
      "ĠServ": 7047,
      "ership": 7048,
      "ĉĉĉĉĉ": 7049,
      "tified": 7050,
      "ĠLib": 7051,
      "ÑģÐºÐ°": 7052,
      "oken": 7053,
      ",.": 7054,
      "Ãľ": 7055,
      "tem": 7056,
      "æī": 7057,
      "ĠEurop": 7058,
      "ä¹ĭ": 7059,
      "ÓĻ": 7060,
      "itos": 7061,
      "Ġvent": 7062,
      "Ø§Ùħ": 7063,
      "Ġie": 7064,
      "ĠMil": 7065,
      "section": 7066,
      "Ã¼h": 7067,
      "Ġvariable": 7068,
      "uy": 7069,
      "Ġscale": 7070,
      "ajÄħ": 7071,
      "Sec": 7072,
      "azioni": 7073,
      "Ġvill": 7074,
      "ĠÙħÙĨ": 7075,
      "Ġissued": 7076,
      "{\"": 7077,
      "nosti": 7078,
      "Ġkl": 7079,
      "ĠAssoci": 7080,
      "ĠÚ©": 7081,
      "Hand": 7082,
      "ĠAuf": 7083,
      "ulo": 7084,
      "qui": 7085,
      "ifications": 7086,
      "Ġ....": 7087,
      "aise": 7088,
      "ĠAustr": 7089,
      "Page": 7090,
      "Ġrespond": 7091,
      "Ġov": 7092,
      "Ġwriting": 7093,
      "ĠØ§ÙĦÙħ": 7094,
      "start": 7095,
      "Ġresource": 7096,
      "Ġdisp": 7097,
      "à°¾": 7098,
      "ĠĠĠĠĠĠĠĠĠĠĠĠ": 7099,
      "umu": 7100,
      "Ġvaluable": 7101,
      "Ġwat": 7102,
      "Ġdesired": 7103,
      "Ð¢": 7104,
      "enza": 7105,
      "Ġfacilit": 7106,
      "å¸": 7107,
      "Ġusually": 7108,
      "fte": 7109,
      "Ġlit": 7110,
      "jour": 7111,
      "rio": 7112,
      "Ġentit": 7113,
      "Ġkm": 7114,
      "ĠSuch": 7115,
      "which": 7116,
      "ĠSchool": 7117,
      "jas": 7118,
      "Ġpair": 7119,
      "adi": 7120,
      "ĠMac": 7121,
      "now": 7122,
      "Ġvisual": 7123,
      "Ġguer": 7124,
      "RNA": 7125,
      "Ġconten": 7126,
      "Ġentry": 7127,
      "Î¼Î±": 7128,
      "Ãºn": 7129,
      "Ġresistance": 7130,
      "quisition": 7131,
      "Ġallowed": 7132,
      "\"},": 7133,
      "âĢĿ,": 7134,
      "VI": 7135,
      "nu": 7136,
      "Ġign": 7137,
      "ĠSol": 7138,
      "Ġunits": 7139,
      "ĠlÃł": 7140,
      "Ġexchange": 7141,
      "================": 7142,
      "HO": 7143,
      "Ġorient": 7144,
      "roy": 7145,
      "Ġlack": 7146,
      "Ġrender": 7147,
      "tia": 7148,
      "ĠHere": 7149,
      "ĠMer": 7150,
      "áŀ": 7151,
      "Ġindependent": 7152,
      "ĠCentral": 7153,
      "zie": 7154,
      "ĠLu": 7155,
      "Ġfurn": 7156,
      "Ġanno": 7157,
      "Ġelectrode": 7158,
      "oup": 7159,
      "Section": 7160,
      "tico": 7161,
      "Ġsites": 7162,
      "Ã¤Ã¤r": 7163,
      "equ": 7164,
      "Ġgal": 7165,
      "Ġneigh": 7166,
      "Dec": 7167,
      "Ġdistributed": 7168,
      "crit": 7169,
      "Ñĳ": 7170,
      "ube": 7171,
      "resse": 7172,
      "ILL": 7173,
      "faces": 7174,
      "uant": 7175,
      "Ġsurv": 7176,
      "æĹ¥": 7177,
      "à¯ģ": 7178,
      "acters": 7179,
      "Ġconsolid": 7180,
      "Ġbottom": 7181,
      "Ġenjoy": 7182,
      "Ġbul": 7183,
      "call": 7184,
      "Ġexempl": 7185,
      "zu": 7186,
      "Ġjusqu": 7187,
      "ÙĪÙĨ": 7188,
      "ALE": 7189,
      "das": 7190,
      "Ġfois": 7191,
      "ĠÂ±": 7192,
      "MM": 7193,
      "Ġig": 7194,
      "itude": 7195,
      "Ġett": 7196,
      "Ġjuris": 7197,
      "Att": 7198,
      "ĠVI": 7199,
      "ologie": 7200,
      "Ġmic": 7201,
      "Ãį": 7202,
      "Ġpret": 7203,
      "model": 7204,
      "reshold": 7205,
      "Ġà¥": 7206,
      "Ġcounter": 7207,
      "aat": 7208,
      "ĠClass": 7209,
      "stream": 7210,
      "Ġforth": 7211,
      "Ġmess": 7212,
      "zenia": 7213,
      "Ġtheory": 7214,
      "ĠUm": 7215,
      "Ġcompound": 7216,
      "Ġcopy": 7217,
      "ilosoph": 7218,
      "Ġfigure": 7219,
      "Ġexpressed": 7220,
      "Ġ68": 7221,
      "ĠÃĦ": 7222,
      "urb": 7223,
      "Ġedge": 7224,
      "Ġquelques": 7225,
      "ression": 7226,
      "Ġremember": 7227,
      "?\"": 7228,
      "Ġtitre": 7229,
      "*.": 7230,
      "Ġprocedure": 7231,
      "GL": 7232,
      "ĠLE": 7233,
      "ĠSir": 7234,
      "ÎĻ": 7235,
      "Ġappoint": 7236,
      "ĠTest": 7237,
      "Ġsaw": 7238,
      "ĠUE": 7239,
      "Ġsea": 7240,
      "Ġvag": 7241,
      "ming": 7242,
      "Ġuma": 7243,
      "Ġfirm": 7244,
      "Ġscience": 7245,
      "ĠOrgan": 7246,
      "kk": 7247,
      "Ġended": 7248,
      "Ġshowing": 7249,
      "presents": 7250,
      "ĠDate": 7251,
      "æĿ": 7252,
      "item": 7253,
      "itiz": 7254,
      "Array": 7255,
      "ĠIll": 7256,
      "ĠProf": 7257,
      "ĠEach": 7258,
      "Ġdisclosure": 7259,
      "Ġtraditional": 7260,
      "Ã®tre": 7261,
      "Ġattempt": 7262,
      "ĠThomas": 7263,
      "HT": 7264,
      "Ġmol": 7265,
      "ÙĬÙĨ": 7266,
      "Ã¸r": 7267,
      "Ġgenes": 7268,
      "Ġwenn": 7269,
      "Ġtechnique": 7270,
      "Ġkin": 7271,
      "ĠLin": 7272,
      "lamento": 7273,
      "Ġheures": 7274,
      "ĠConseil": 7275,
      "Ġmati": 7276,
      "Ġsenti": 7277,
      "ekt": 7278,
      "ĠJah": 7279,
      "Ġ400": 7280,
      "tige": 7281,
      "adt": 7282,
      "Ġsept": 7283,
      "Ġdebt": 7284,
      "nos": 7285,
      "ĠCas": 7286,
      "Ġassist": 7287,
      "ĠCa": 7288,
      "ĠSM": 7289,
      "onic": 7290,
      "Ġsetting": 7291,
      "Ġbecomes": 7292,
      "lient": 7293,
      "ĠreprÃ©sent": 7294,
      "board": 7295,
      "Ġgain": 7296,
      "obre": 7297,
      "ÏīÏĤ": 7298,
      "tw": 7299,
      "Ġstream": 7300,
      "Ġtip": 7301,
      "Ġspecifically": 7302,
      "ĠBre": 7303,
      "Ġpentru": 7304,
      "ÃŁen": 7305,
      "ĠPL": 7306,
      "Ġlabel": 7307,
      "Ġseems": 7308,
      "Ġdop": 7309,
      "ĠIL": 7310,
      "nic": 7311,
      "Ġstrategies": 7312,
      "User": 7313,
      "onal": 7314,
      "ISS": 7315,
      "ĠList": 7316,
      "efore": 7317,
      "ĠNach": 7318,
      "ship": 7319,
      "Ġfie": 7320,
      "lice": 7321,
      "Ġ1998": 7322,
      "ĠGeorge": 7323,
      "Ã©nÃ©": 7324,
      "anja": 7325,
      "hydro": 7326,
      "Ġhighly": 7327,
      "Ġdomin": 7328,
      "Ġindicated": 7329,
      "hang": 7330,
      "ÐµÐº": 7331,
      "Ġelectronic": 7332,
      "ĠAlthough": 7333,
      "UP": 7334,
      "ĠpiÃ¹": 7335,
      "anda": 7336,
      "isse": 7337,
      "vous": 7338,
      "ĠCommittee": 7339,
      "uvre": 7340,
      "cd": 7341,
      "Ġmobile": 7342,
      "pped": 7343,
      "Ġtechnical": 7344,
      "asure": 7345,
      "Ġeth": 7346,
      "Ġcompr": 7347,
      "ĠAdd": 7348,
      "Ġperfect": 7349,
      "Ġminimum": 7350,
      "Ġbegan": 7351,
      "ĠÐ¿ÑĢÐµ": 7352,
      "Ġworth": 7353,
      "DR": 7354,
      "ĠGer": 7355,
      "Ġvu": 7356,
      "Ġcurrently": 7357,
      "Ġvac": 7358,
      "phen": 7359,
      "Ġstatement": 7360,
      "Ġauthors": 7361,
      "Ġfabric": 7362,
      "ogni": 7363,
      "Ġ96": 7364,
      "Âµ": 7365,
      "Ġdaily": 7366,
      "Now": 7367,
      "Õ¸ÖĤ": 7368,
      "ilities": 7369,
      "Ġwait": 7370,
      "Ġmel": 7371,
      "Ã¶s": 7372,
      "Ġskills": 7373,
      "Ġhan": 7374,
      "Google": 7375,
      "ĠMoreover": 7376,
      "Ġcommunities": 7377,
      "table": 7378,
      "Union": 7379,
      "Ġjustice": 7380,
      "hood": 7381,
      "STR": 7382,
      "rÃ¨s": 7383,
      "Ġaur": 7384,
      "ĠSil": 7385,
      "ĠrÃ©sult": 7386,
      "rea": 7387,
      "Dis": 7388,
      "ĠWell": 7389,
      "Ġequipment": 7390,
      "One": 7391,
      "Ġagents": 7392,
      "ĠJapan": 7393,
      "bid": 7394,
      "Ġstop": 7395,
      "mu": 7396,
      "Ġ104": 7397,
      "Ġrail": 7398,
      "ĠPost": 7399,
      "nego": 7400,
      "Ġheard": 7401,
      "ĠBet": 7402,
      "pub": 7403,
      "à®ķ": 7404,
      "Ġgod": 7405,
      "ĠMember": 7406,
      "GG": 7407,
      "ĠDirec": 7408,
      "atud": 7409,
      "ĠÃ©v": 7410,
      "ĠDas": 7411,
      "Ġgave": 7412,
      "ĠkÃ¤": 7413,
      "aille": 7414,
      "Ġrecorded": 7415,
      "Ġmarch": 7416,
      "Ġkor": 7417,
      "tl": 7418,
      "cipl": 7419,
      "ĠPhil": 7420,
      "ĠÃ¤r": 7421,
      "Ġguide": 7422,
      "ÙĪØ±": 7423,
      "Ġfindings": 7424,
      "Ġplaces": 7425,
      "ĠPAR": 7426,
      "ĠÙģÙĬ": 7427,
      "Ġmiss": 7428,
      "Ġreven": 7429,
      "Ã©rieur": 7430,
      "ĠNE": 7431,
      "obj": 7432,
      "holders": 7433,
      "Ġ84": 7434,
      "Ġtrop": 7435,
      "Ġcred": 7436,
      "Ġobjects": 7437,
      "flow": 7438,
      "Ġreduction": 7439,
      "UD": 7440,
      "rick": 7441,
      "ested": 7442,
      "='": 7443,
      "Ġauthority": 7444,
      "Ġuses": 7445,
      "Ġextent": 7446,
      "hu": 7447,
      "ĠInstit": 7448,
      "Ġdeal": 7449,
      "ãĤ¹": 7450,
      "ographic": 7451,
      "counts": 7452,
      "info": 7453,
      "sw": 7454,
      "Ġimplementation": 7455,
      "reement": 7456,
      "Ġfif": 7457,
      "itud": 7458,
      "ittel": 7459,
      "arios": 7460,
      "Ġstarted": 7461,
      "Ġnouve": 7462,
      "ĠLos": 7463,
      "Ġà¤ª": 7464,
      "unit": 7465,
      "Ġindi": 7466,
      "ĠMen": 7467,
      "Ð½Ñĸ": 7468,
      "Ġcatal": 7469,
      "alls": 7470,
      "Ġ93": 7471,
      "COM": 7472,
      "ĠfranÃ§ais": 7473,
      "Ġbehind": 7474,
      "Ġmolec": 7475,
      "Ġped": 7476,
      "vere": 7477,
      "Ge": 7478,
      "########": 7479,
      "irk": 7480,
      "ulate": 7481,
      "haps": 7482,
      "Ø§Ø¯": 7483,
      "bro": 7484,
      "Ġveg": 7485,
      "Ġvs": 7486,
      "Ġaid": 7487,
      "ĠGovernment": 7488,
      "omo": 7489,
      "Ġseparate": 7490,
      "ĠProgram": 7491,
      "Ġjam": 7492,
      "Ġago": 7493,
      "Ð½Ð¸ÑĤÐµ": 7494,
      "Ġones": 7495,
      "Ġmerc": 7496,
      "Ġpayment": 7497,
      "Ġoct": 7498,
      "Ġsod": 7499,
      "Ġdomaine": 7500,
      ".),": 7501,
      "Ġconflic": 7502,
      "Ġemployed": 7503,
      "Ġ67": 7504,
      "ML": 7505,
      "Ã¨ne": 7506,
      "unal": 7507,
      "END": 7508,
      "ĠJean": 7509,
      "static": 7510,
      "Ġkann": 7511,
      "ĠprocÃ©d": 7512,
      "part": 7513,
      "esti": 7514,
      "ĠiÅ¡": 7515,
      "Ġleave": 7516,
      "nÄĽ": 7517,
      "Ġ98": 7518,
      "Ġidentific": 7519,
      "Ġlatter": 7520,
      "Ġnotes": 7521,
      "Ġinside": 7522,
      "Ġkil": 7523,
      "Ġderiv": 7524,
      "Ġfonction": 7525,
      "ormal": 7526,
      "âģ": 7527,
      "Ġmembres": 7528,
      "ĠChristian": 7529,
      "Ġimproved": 7530,
      "Af": 7531,
      "Ġwo": 7532,
      "Us": 7533,
      "Model": 7534,
      "Ġwebs": 7535,
      "Ġintended": 7536,
      "atie": 7537,
      "Ġtho": 7538,
      "Ġvirtual": 7539,
      "Acc": 7540,
      "vas": 7541,
      "Ġproduits": 7542,
      "Ġcustomers": 7543,
      "Ġjours": 7544,
      "ferred": 7545,
      "ĠÎ¬": 7546,
      "lle": 7547,
      "Ġvote": 7548,
      "ĠÏĦÎ±": 7549,
      "eden": 7550,
      "ĠInformation": 7551,
      "Ġjug": 7552,
      "kra": 7553,
      "Ġtalk": 7554,
      "ĠkÃ¶n": 7555,
      "ÏģÎ¯": 7556,
      "ouvernement": 7557,
      "Ġchurch": 7558,
      "Ġceleb": 7559,
      "IRE": 7560,
      "ĠMich": 7561,
      "ĠTit": 7562,
      "Ġparticipants": 7563,
      "enced": 7564,
      "Ġtakes": 7565,
      "pping": 7566,
      "oses": 7567,
      "à¸Ļ": 7568,
      "Ġcalculated": 7569,
      "bel": 7570,
      "ëĭ": 7571,
      "uble": 7572,
      "redi": 7573,
      "iene": 7574,
      "Ġbackground": 7575,
      "Ġbelong": 7576,
      "Sch": 7577,
      "Ġselection": 7578,
      "ĠÐ¼Ðµ": 7579,
      "Ġpil": 7580,
      "last": 7581,
      "unes": 7582,
      "color": 7583,
      "Ð½Ð¾Ð¹": 7584,
      "Ġappears": 7585,
      "Up": 7586,
      "Ġwid": 7587,
      "Ġsecret": 7588,
      "Ġpon": 7589,
      "GR": 7590,
      "oved": 7591,
      "Ġinn": 7592,
      "Ġeft": 7593,
      "OUR": 7594,
      "ÑĨÐ¸Ñı": 7595,
      "âĢĭ": 7596,
      "Ġrelease": 7597,
      "oted": 7598,
      "Ġconducted": 7599,
      "Ġplas": 7600,
      "ypes": 7601,
      "Ġanimal": 7602,
      "ĠdÃ©clar": 7603,
      "300": 7604,
      "Ġnamed": 7605,
      "PC": 7606,
      "Ġ88": 7607,
      "oa": 7608,
      "Ġalone": 7609,
      "VID": 7610,
      "Ġreading": 7611,
      "Ġdoi": 7612,
      "Äĳ": 7613,
      "Ġcreating": 7614,
      "akes": 7615,
      "Ġà¤¸": 7616,
      "rÃ¡": 7617,
      "assert": 7618,
      "ĠRepublic": 7619,
      "Ġliterature": 7620,
      "Ġdestin": 7621,
      "Ang": 7622,
      "ĠWal": 7623,
      "åº": 7624,
      "âĸ¼": 7625,
      "mb": 7626,
      "Ġlives": 7627,
      "db": 7628,
      "orie": 7629,
      "Ġtissue": 7630,
      "rest": 7631,
      "step": 7632,
      "actory": 7633,
      ".]": 7634,
      "ĠÐ¿Ð°": 7635,
      "Ġpreferably": 7636,
      "eding": 7637,
      "ĠÃ©tabl": 7638,
      "Ġ(!": 7639,
      "amos": 7640,
      "Ġinterests": 7641,
      "Te": 7642,
      "à¥ģ": 7643,
      "stance": 7644,
      "Ġku": 7645,
      "ĠSk": 7646,
      "enda": 7647,
      "Ġcontroller": 7648,
      "ĠMA": 7649,
      "Ġrepresents": 7650,
      "Ð½Ð¾Ð³Ð¾": 7651,
      "velopment": 7652,
      "Ġdiverse": 7653,
      "ĠJu": 7654,
      "Ġmac": 7655,
      "Ġfailure": 7656,
      "arth": 7657,
      "Ġmorning": 7658,
      "ĠØ±": 7659,
      "joni": 7660,
      "osen": 7661,
      "cies": 7662,
      "iki": 7663,
      "Ġprobably": 7664,
      "hÃ¤": 7665,
      "Ġsector": 7666,
      "vor": 7667,
      "Ġserve": 7668,
      "/**": 7669,
      "Ġ74": 7670,
      "vr": 7671,
      "rob": 7672,
      "[\"": 7673,
      "ĠBas": 7674,
      "ĠJan": 7675,
      "Ġthereby": 7676,
      "Ġdieser": 7677,
      "Ġestimated": 7678,
      "ĠKon": 7679,
      "Ġviel": 7680,
      "Ġamo": 7681,
      "Ġalign": 7682,
      "ĠThrough": 7683,
      "ĠCR": 7684,
      "ĠSA": 7685,
      "Ġnan": 7686,
      "Ġenf": 7687,
      "ĠON": 7688,
      "Ã¤Ã¤n": 7689,
      "elm": 7690,
      "iert": 7691,
      "arse": 7692,
      "ĠZeit": 7693,
      "ĠWarr": 7694,
      "Ġwide": 7695,
      "ĠStock": 7696,
      "Ġinstructions": 7697,
      "itur": 7698,
      "Ġseule": 7699,
      "Ã½m": 7700,
      "Ġfaut": 7701,
      "Ġ91": 7702,
      "Ġdiagram": 7703,
      "Ġdiscussion": 7704,
      "Ġconclusion": 7705,
      "Ġcaract": 7706,
      "2007": 7707,
      "Ġpartners": 7708,
      "ĠNULL": 7709,
      "Ġeyes": 7710,
      "Ġhousing": 7711,
      "Î»Î·": 7712,
      "Ġress": 7713,
      "ĠCette": 7714,
      "Ġmatrix": 7715,
      "tf": 7716,
      "xa": 7717,
      "ĠGar": 7718,
      "bst": 7719,
      "Ġfaith": 7720,
      "atom": 7721,
      "teen": 7722,
      "url": 7723,
      "à¤¦": 7724,
      "Ġanimals": 7725,
      "Ġstay": 7726,
      "Ġgate": 7727,
      "Ġalleg": 7728,
      "Ġstored": 7729,
      "Ġlid": 7730,
      "Ġsig": 7731,
      "Ġaqu": 7732,
      "Ġty": 7733,
      "Ġpie": 7734,
      "alo": 7735,
      "Ġremoved": 7736,
      "Ð½ÑĭÑħ": 7737,
      "Ġrisks": 7738,
      "ĠÐ¿Ð¾Ð»": 7739,
      "dire": 7740,
      "iai": 7741,
      "Ġouter": 7742,
      "ÏĥÎµ": 7743,
      "Ġaffected": 7744,
      "thon": 7745,
      "Ġsympt": 7746,
      "Ġscen": 7747,
      "MC": 7748,
      "Ġverb": 7749,
      "Ġcauses": 7750,
      "Ã¡ll": 7751,
      "ABLE": 7752,
      "Cre": 7753,
      "ãģª": 7754,
      "Ġ92": 7755,
      "Ġwife": 7756,
      "Ġcentury": 7757,
      "Ġtask": 7758,
      "Ġ78": 7759,
      "ifier": 7760,
      "Ġutilis": 7761,
      "owe": 7762,
      "ãĤĮ": 7763,
      "Ġpreferred": 7764,
      "Ġgold": 7765,
      "ĠÃ¢": 7766,
      "ðĿ": 7767,
      "Ġexception": 7768,
      "Ġaxis": 7769,
      "Ġcircumstances": 7770,
      "Ġking": 7771,
      "Ġpassage": 7772,
      "ĠFil": 7773,
      "Ġgest": 7774,
      "Ġresponsible": 7775,
      "Ġpris": 7776,
      "Ġ77": 7777,
      "Ġplusieurs": 7778,
      "EMENT": 7779,
      "rot": 7780,
      "2004": 7781,
      "Ġ71": 7782,
      "Ġperman": 7783,
      "orig": 7784,
      "Ġminim": 7785,
      "imiento": 7786,
      "ĠÃĹ": 7787,
      "URE": 7788,
      "Ġelev": 7789,
      "Ġdic": 7790,
      "izer": 7791,
      "oin": 7792,
      "zia": 7793,
      "Ġkun": 7794,
      "MENT": 7795,
      "Ġâĸ": 7796,
      "å¤§": 7797,
      "cluded": 7798,
      "ĠmarchÃ©": 7799,
      "0001": 7800,
      "Î»Î¿": 7801,
      "cos": 7802,
      "Article": 7803,
      "ognition": 7804,
      "Ġexercise": 7805,
      "ÐĶ": 7806,
      "âĤ¬": 7807,
      "ĠBes": 7808,
      "çĽ": 7809,
      "ARD": 7810,
      "Ġalternative": 7811,
      "Ġearth": 7812,
      "Î±Ïĥ": 7813,
      "ASS": 7814,
      "oder": 7815,
      "Ġeg": 7816,
      "ĠBritish": 7817,
      "Ġfir": 7818,
      "method": 7819,
      "current": 7820,
      "eur": 7821,
      "Ġcompreh": 7822,
      "Ġchemical": 7823,
      "Ġ+=": 7824,
      "ĠPlan": 7825,
      "AGE": 7826,
      "gef": 7827,
      "Ġpurchase": 7828,
      "create": 7829,
      "atu": 7830,
      "roller": 7831,
      "Ġofficial": 7832,
      "vertis": 7833,
      "ĠMaj": 7834,
      "yb": 7835,
      "FT": 7836,
      "ministration": 7837,
      "ãĥ«": 7838,
      "Ġtold": 7839,
      "Ġgreen": 7840,
      "ensk": 7841,
      "Ã¡nÃŃ": 7842,
      "ĠÐ¸Ð»Ð¸": 7843,
      "ĠAS": 7844,
      "ĠSmith": 7845,
      "Ġassessment": 7846,
      "export": 7847,
      "assa": 7848,
      "olved": 7849,
      "rz": 7850,
      "Ġnatur": 7851,
      "Ä¯": 7852,
      "Ġconj": 7853,
      "Ġhu": 7854,
      "ectors": 7855,
      "Ġdry": 7856,
      "Ġvit": 7857,
      "Ġsomeone": 7858,
      "cion": 7859,
      "There": 7860,
      "Ġfather": 7861,
      "chts": 7862,
      "Ġsubstantially": 7863,
      "ĠMethod": 7864,
      "ĠEur": 7865,
      "Ġparameter": 7866,
      "enk": 7867,
      "Ġsegment": 7868,
      "HS": 7869,
      "Ġdiscussed": 7870,
      "ĠTre": 7871,
      "Ġzwe": 7872,
      "ÑĢÐ°Ð½": 7873,
      "Ġ81": 7874,
      "Ġforces": 7875,
      "Ġtreated": 7876,
      "Ġargument": 7877,
      "amer": 7878,
      "Ġade": 7879,
      "cour": 7880,
      "Ġcondu": 7881,
      "Ġsubstit": 7882,
      "ancer": 7883,
      "Ġcorrel": 7884,
      "å±": 7885,
      "ÃŃculo": 7886,
      "Ġslight": 7887,
      "Ġpositions": 7888,
      "Ġ76": 7889,
      "rup": 7890,
      "Ġvariety": 7891,
      "atio": 7892,
      "Ġcertific": 7893,
      "ĠHo": 7894,
      "Ġvariables": 7895,
      "Ġgenerate": 7896,
      "mid": 7897,
      "Ġring": 7898,
      "Ġtouj": 7899,
      "Ġimmun": 7900,
      "Ġbond": 7901,
      "ĠsociÃ©tÃ©": 7902,
      "quelle": 7903,
      "tok": 7904,
      "ĠFinancial": 7905,
      "ĠBa": 7906,
      "Ġpolicies": 7907,
      "ä¼": 7908,
      "Ð¸Ð·": 7909,
      "Ġsun": 7910,
      "omer": 7911,
      "aken": 7912,
      "Method": 7913,
      "ĠÂ°": 7914,
      "Ã¼nd": 7915,
      "Ð¾Ð²Ðµ": 7916,
      "Ġextends": 7917,
      "Response": 7918,
      "Ġearn": 7919,
      "sg": 7920,
      "Ġprovisions": 7921,
      "prot": 7922,
      "ĠNote": 7923,
      "Ġanalys": 7924,
      "acion": 7925,
      "Ġbere": 7926,
      "ĠEp": 7927,
      "ducation": 7928,
      "iego": 7929,
      "emple": 7930,
      "ÙĩØ§": 7931,
      "Ġvess": 7932,
      "Ġlig": 7933,
      "Ġjoint": 7934,
      "uter": 7935,
      "Ġgard": 7936,
      "ĠHol": 7937,
      "Ġpendant": 7938,
      "Ġacqu": 7939,
      "Ġstories": 7940,
      "orial": 7941,
      "Äįen": 7942,
      "ppe": 7943,
      "Ġsono": 7944,
      "Ġtoujours": 7945,
      "cluding": 7946,
      "ITY": 7947,
      "Ġpure": 7948,
      "rement": 7949,
      "Pos": 7950,
      ")\",": 7951,
      "ĠText": 7952,
      "à²¿": 7953,
      "FI": 7954,
      "Per": 7955,
      "Ġgoods": 7956,
      "cherche": 7957,
      "Â¿": 7958,
      "ĠPrin": 7959,
      "Ġcolumn": 7960,
      "Ġsustain": 7961,
      "Ġdistinct": 7962,
      "fre": 7963,
      "ayer": 7964,
      "dat": 7965,
      "Ġ69": 7966,
      "Ġfle": 7967,
      "Ġtransition": 7968,
      "ÏĪ": 7969,
      "ÐµÑĢÐµ": 7970,
      "ading": 7971,
      "Ġapart": 7972,
      "Ġillustrated": 7973,
      "Ġpec": 7974,
      "Ġangle": 7975,
      "Ġ1997": 7976,
      "ĠStand": 7977,
      "Ġfid": 7978,
      "Ġ1996": 7979,
      "ĠDuring": 7980,
      "Ġmaster": 7981,
      "phone": 7982,
      "Ã¤ch": 7983,
      "ÏģÏī": 7984,
      "Ġpolymer": 7985,
      "cÃŃ": 7986,
      "Ġquo": 7987,
      "acent": 7988,
      "ĠdÃ©velopp": 7989,
      "ĠChem": 7990,
      "Ġsuite": 7991,
      "Ġbooks": 7992,
      "Ġ((": 7993,
      "Ġdetailed": 7994,
      "Step": 7995,
      "Ġannual": 7996,
      "Ġforming": 7997,
      "reek": 7998,
      "aro": 7999,
      "Ġnego": 8000,
      "Ġ73": 8001,
      "Ġdark": 8002,
      "Ġflu": 8003,
      "edia": 8004,
      "Ġlost": 8005,
      "Ġexcell": 8006,
      "xx": 8007,
      "ĠÎ£": 8008,
      "ĠOper": 8009,
      "Ġfields": 8010,
      "ĠMary": 8011,
      "ĠSO": 8012,
      "run": 8013,
      "yon": 8014,
      "Ġmagnetic": 8015,
      "elli": 8016,
      "Ãģ": 8017,
      "tere": 8018,
      "Ġsummary": 8019,
      "tivo": 8020,
      "ĠAdditionally": 8021,
      "Ġwave": 8022,
      "Ġbuilt": 8023,
      "onde": 8024,
      "iconduct": 8025,
      "ĠPubl": 8026,
      "rated": 8027,
      "tigen": 8028,
      "Group": 8029,
      "ĠCorpor": 8030,
      "Ġ(\"": 8031,
      "ffen": 8032,
      "Ġexcess": 8033,
      "sign": 8034,
      "Ag": 8035,
      "Ġhope": 8036,
      "ĠspÃ©c": 8037,
      "Ġwaar": 8038,
      "Î¯Î½": 8039,
      "Ġ82": 8040,
      "Ġip": 8041,
      "Å¿ch": 8042,
      "Ġformat": 8043,
      "ĠFam": 8044,
      "ĠAir": 8045,
      "Ġmiles": 8046,
      "Õ¡Õ¶": 8047,
      "Ġvaleur": 8048,
      "zd": 8049,
      "Ġnovel": 8050,
      "Ġ};": 8051,
      "elines": 8052,
      "elet": 8053,
      "éĥ": 8054,
      "icated": 8055,
      "stell": 8056,
      "={": 8057,
      "ĠUse": 8058,
      "cil": 8059,
      "Ġnumerous": 8060,
      "Ġwood": 8061,
      "Ã©ro": 8062,
      "Ġmixture": 8063,
      "Ġtrain": 8064,
      "enth": 8065,
      "Ġbudget": 8066,
      "ĠrÃ¨glement": 8067,
      "ĠRoy": 8068,
      "Ġplans": 8069,
      "ĠEL": 8070,
      "Ġfiscal": 8071,
      "Ġhi": 8072,
      "road": 8073,
      "top": 8074,
      "Ġmise": 8075,
      "onna": 8076,
      "Ġcircul": 8077,
      "Äįi": 8078,
      "Ġemerg": 8079,
      "ĠEast": 8080,
      "nost": 8081,
      "Ġmother": 8082,
      "GB": 8083,
      "Ġequival": 8084,
      "../": 8085,
      "Ð±Ð¸": 8086,
      "Ġbool": 8087,
      "Ġsul": 8088,
      "Ġexceed": 8089,
      "Ġ87": 8090,
      "mission": 8091,
      "Î¼Î²": 8092,
      "Ġcrucial": 8093,
      "onia": 8094,
      "Ġchapter": 8095,
      "Ġeines": 8096,
      "ughter": 8097,
      "ĉĊ": 8098,
      "Ġreturned": 8099,
      "Ġnoted": 8100,
      "Ġcab": 8101,
      "hat": 8102,
      "Äģr": 8103,
      "ĠÂ¿": 8104,
      "ĠCes": 8105,
      "ÏģÎ¬": 8106,
      "Identif": 8107,
      "Ġresolution": 8108,
      "Ġbrain": 8109,
      "encing": 8110,
      "gener": 8111,
      "ensed": 8112,
      "ĠÑĸ": 8113,
      "ÏĢÎ±": 8114,
      "Ġdiese": 8115,
      "OH": 8116,
      "inu": 8117,
      "Ġesta": 8118,
      "dir": 8119,
      "Ġprojects": 8120,
      "Ġeveryone": 8121,
      "zel": 8122,
      "éĩ": 8123,
      "Å¡t": 8124,
      "charge": 8125,
      "Ġdich": 8126,
      "Ġtoward": 8127,
      "Ġpix": 8128,
      "Ġpolice": 8129,
      "Ġalors": 8130,
      "ÑģÑĤÐ²Ð¾": 8131,
      "Ġsuit": 8132,
      "ĠIndian": 8133,
      "enter": 8134,
      "Ġsets": 8135,
      "ĠEi": 8136,
      "Ġgir": 8137,
      "eterm": 8138,
      "ĠDepartment": 8139,
      "Ġsuccessful": 8140,
      "ĠMass": 8141,
      "ĠintÃ©r": 8142,
      "beit": 8143,
      "Ġopportunities": 8144,
      "roph": 8145,
      "iano": 8146,
      "Ġnotamment": 8147,
      "base": 8148,
      "imen": 8149,
      "Ġsupported": 8150,
      "ĠReport": 8151,
      "uint": 8152,
      "nem": 8153,
      "aga": 8154,
      "Ġdetermining": 8155,
      "amine": 8156,
      "Ġsimply": 8157,
      "information": 8158,
      "ÑĦÐ¸": 8159,
      "Ġconna": 8160,
      "Ġweeks": 8161,
      "ICE": 8162,
      "Ġcombined": 8163,
      "Î¼Î¿": 8164,
      "Ġcryst": 8165,
      "________________": 8166,
      "Ġadapt": 8167,
      "Î¿ÏħÎ½": 8168,
      "Ġquantit": 8169,
      "ĠGood": 8170,
      "riers": 8171,
      "orem": 8172,
      "lÃ¤": 8173,
      "Ġjournal": 8174,
      "Ã¡z": 8175,
      "ĠCalif": 8176,
      "venir": 8177,
      "eling": 8178,
      "Sp": 8179,
      "Ġcontrast": 8180,
      "Ġgradu": 8181,
      "troduction": 8182,
      "Ġcapable": 8183,
      "Ġordin": 8184,
      "ĠSy": 8185,
      "Ġhem": 8186,
      "Ġfunctional": 8187,
      "ĠÐ²Ñĭ": 8188,
      "othe": 8189,
      "Ġchez": 8190,
      "ĠpremiÃ¨re": 8191,
      "null": 8192,
      "icate": 8193,
      "Ġshared": 8194,
      "Ġamounts": 8195,
      "Ġinstitutions": 8196,
      "à°°": 8197,
      "ä¸Ń": 8198,
      "ĠSS": 8199,
      "Ġpued": 8200,
      "parti": 8201,
      "ront": 8202,
      "weg": 8203,
      "arian": 8204,
      "DB": 8205,
      "Ġprocessor": 8206,
      "iffer": 8207,
      "Ġrig": 8208,
      "Ġzone": 8209,
      "ĠÃ¥": 8210,
      "Ġalt": 8211,
      "Ġwon": 8212,
      "Ġweak": 8213,
      "à±ģ": 8214,
      "Ã¶l": 8215,
      "Ġefficiency": 8216,
      "Ġdoll": 8217,
      "nr": 8218,
      "parent": 8219,
      "Ġentered": 8220,
      "Ġhij": 8221,
      "Ġhospital": 8222,
      "aka": 8223,
      "Ġderni": 8224,
      "Ġprzy": 8225,
      "Ġultim": 8226,
      "Ġpanel": 8227,
      "Ġjest": 8228,
      "ĠTel": 8229,
      "1234": 8230,
      "Ġobjec": 8231,
      "Ġcooper": 8232,
      "otes": 8233,
      "Ġeasily": 8234,
      "Ġauto": 8235,
      "Ġindicate": 8236,
      "ierre": 8237,
      "Ġ97": 8238,
      "Ġprimarily": 8239,
      "kan": 8240,
      "Ġcav": 8241,
      "cing": 8242,
      "nier": 8243,
      "ĠCro": 8244,
      "Ġmental": 8245,
      "Ġcast": 8246,
      "Ġreform": 8247,
      "ĠÅĽ": 8248,
      "aja": 8249,
      "umes": 8250,
      "amples": 8251,
      "ĠMM": 8252,
      "ä¸į": 8253,
      "Ġprograms": 8254,
      "Ġio": 8255,
      "Ġ83": 8256,
      "Ġwind": 8257,
      "Ġbatter": 8258,
      "owi": 8259,
      "reib": 8260,
      "BB": 8261,
      "izont": 8262,
      "erse": 8263,
      "Ġanything": 8264,
      "esp": 8265,
      "Ġvotre": 8266,
      "Result": 8267,
      "ĠÏĥÎµ": 8268,
      "ĠBor": 8269,
      "water": 8270,
      "Ġspring": 8271,
      "æĽ": 8272,
      "Ġsession": 8273,
      "Ġlen": 8274,
      "Ġast": 8275,
      "ÎµÏģÎ¹": 8276,
      "CM": 8277,
      "open": 8278,
      "ĠKommission": 8279,
      "Ġdatabase": 8280,
      "Î£": 8281,
      "gency": 8282,
      "Ġestate": 8283,
      "relationship": 8284,
      "find": 8285,
      "raphe": 8286,
      "Ġwoman": 8287,
      "Ġ94": 8288,
      "Ġdelay": 8289,
      "Ġrunning": 8290,
      "cepts": 8291,
      "emporary": 8292,
      "ĠDiv": 8293,
      "zet": 8294,
      "Count": 8295,
      "umi": 8296,
      "Ġdecided": 8297,
      "ĠElle": 8298,
      "Î½ÏĦÎ±Î¹": 8299,
      "Die": 8300,
      "Ġsua": 8301,
      "iga": 8302,
      "ians": 8303,
      "æľĪ": 8304,
      "èĩ": 8305,
      "Ġadvantage": 8306,
      "ÑĪÐµ": 8307,
      "oseph": 8308,
      "Ġsmaller": 8309,
      "Ġpens": 8310,
      "Ġrecords": 8311,
      "Ġ106": 8312,
      "Ġcoupled": 8313,
      "uda": 8314,
      "ÏĬ": 8315,
      "Ġvoy": 8316,
      "ĠÐ¿ÑĢÐ°": 8317,
      "Ġdoct": 8318,
      "nel": 8319,
      "room": 8320,
      "ĠÏĨ": 8321,
      "Ġ<=": 8322,
      "OG": 8323,
      "ijiet": 8324,
      "Ã¡ny": 8325,
      "ĠAlso": 8326,
      "./": 8327,
      "nah": 8328,
      "Ġproportion": 8329,
      "ĠHam": 8330,
      "EUR": 8331,
      "Ġeasy": 8332,
      "Ġrecently": 8333,
      "ĠMi": 8334,
      "âĢĿ.": 8335,
      "ulating": 8336,
      "ĠÑģÐ¸": 8337,
      "Ġprocedures": 8338,
      "ÑĨÐ¸Ð¸": 8339,
      "Å±": 8340,
      "Ġefficient": 8341,
      "Ġexclus": 8342,
      "acij": 8343,
      "Ġphosph": 8344,
      "uver": 8345,
      "orf": 8346,
      "Ġcompensation": 8347,
      "angen": 8348,
      "Ġscope": 8349,
      "ĠSel": 8350,
      "Ġrecept": 8351,
      "ĠBec": 8352,
      "Ġthreshold": 8353,
      "Ġspread": 8354,
      "DU": 8355,
      "Ġobligations": 8356,
      "Element": 8357,
      "Ġ86": 8358,
      "ĠnÃ£o": 8359,
      "book": 8360,
      "Ġpad": 8361,
      "Ġamend": 8362,
      "Ġexposure": 8363,
      "Ġcontribute": 8364,
      "Ġquarter": 8365,
      "Ġvector": 8366,
      "Äģm": 8367,
      "ĠNone": 8368,
      "ãĥ»": 8369,
      "Ġ130": 8370,
      "ĠFra": 8371,
      "layer": 8372,
      "SON": 8373,
      "uels": 8374,
      "Ã¨rent": 8375,
      "Ġwi": 8376,
      "Ġnm": 8377,
      "ORD": 8378,
      "Ġexport": 8379,
      "Ġavons": 8380,
      "Ġupd": 8381,
      "Ġvul": 8382,
      "Ġsumm": 8383,
      "Ġsoll": 8384,
      "Ġemphas": 8385,
      "Ġcoming": 8386,
      "iconductor": 8387,
      "Source": 8388,
      "ĠÏĢÎ±Ïģ": 8389,
      "ï¿½ï¿½": 8390,
      "ĠpÃºblic": 8391,
      "Ġneut": 8392,
      "Ġdensity": 8393,
      "Ġmunicip": 8394,
      "Ġscientific": 8395,
      "Ġgaranti": 8396,
      "ĠMain": 8397,
      "ĠXX": 8398,
      "Ġvalve": 8399,
      "ears": 8400,
      "âĤģ": 8401,
      "ĠSince": 8402,
      "400": 8403,
      "urrence": 8404,
      "ĠĠĠĠĊ": 8405,
      "Ġparents": 8406,
      "Ġtai": 8407,
      "assen": 8408,
      "Ġsend": 8409,
      "ĠCL": 8410,
      "itial": 8411,
      "Ġvai": 8412,
      "Ġ114": 8413,
      "Ġzo": 8414,
      "Ð»ÐµÐ´": 8415,
      "Ġtemp": 8416,
      "owie": 8417,
      "velle": 8418,
      "Ġgestion": 8419,
      "ÄĻd": 8420,
      "ĠGerman": 8421,
      "Ġdog": 8422,
      "iding": 8423,
      "PH": 8424,
      "\"/>": 8425,
      "IONS": 8426,
      "Ġgives": 8427,
      "Ġswe": 8428,
      "iture": 8429,
      "áĥĿ": 8430,
      "page": 8431,
      "ÂłÂłÂłÂł": 8432,
      "Ġjava": 8433,
      "ĠOut": 8434,
      "Ġglass": 8435,
      "arbon": 8436,
      "à¸£": 8437,
      "Ã©tait": 8438,
      "Ġbeginning": 8439,
      "Ġquelque": 8440,
      "Ġclosed": 8441,
      "á¼": 8442,
      "asp": 8443,
      "ourg": 8444,
      "anged": 8445,
      "Ġprovision": 8446,
      "ĠPan": 8447,
      "\"}}": 8448,
      "Ġpublication": 8449,
      "ĠâĢĿ": 8450,
      "ouble": 8451,
      "Ġportions": 8452,
      "Ġintellig": 8453,
      "ĠsÄĥ": 8454,
      "Ġpeace": 8455,
      "Ġofficers": 8456,
      "Ġparallel": 8457,
      "à®¤": 8458,
      "Ġlock": 8459,
      "ĠTex": 8460,
      "Ðľ": 8461,
      "Ġshift": 8462,
      "ĠÂ».": 8463,
      "ĠBur": 8464,
      "Ġcommit": 8465,
      "ĠSB": 8466,
      "ĠÂ®": 8467,
      "ĠLong": 8468,
      "orph": 8469,
      "Ġoutcomes": 8470,
      "Ã¡d": 8471,
      "åĮ": 8472,
      "Ġnive": 8473,
      "ĠPhys": 8474,
      "PubMed": 8475,
      "Ġlaquelle": 8476,
      "ĠÙĩ": 8477,
      "Ġ250": 8478,
      "jem": 8479,
      "jÃł": 8480,
      "ĠÅ¼e": 8481,
      "ĠprÃ©v": 8482,
      "hern": 8483,
      "Ġmeasurement": 8484,
      "uw": 8485,
      "stood": 8486,
      "ĠÙĥ": 8487,
      "hentic": 8488,
      "Ġexpenses": 8489,
      "acer": 8490,
      "Ġreports": 8491,
      "ÏģÎ³": 8492,
      "ĠPress": 8493,
      "valuation": 8494,
      "Ġpla": 8495,
      "ĠVan": 8496,
      "ĠÎ®": 8497,
      "ĠSecond": 8498,
      "Ġlayers": 8499,
      "Ġscreen": 8500,
      "context": 8501,
      "Ġconduc": 8502,
      "avi": 8503,
      "Ġtree": 8504,
      "akt": 8505,
      "ĠÎ´Î¹Î±": 8506,
      "Ġmur": 8507,
      "isti": 8508,
      "Ġstabil": 8509,
      "vy": 8510,
      "ĠÑģÐ¾": 8511,
      "Ġpreserv": 8512,
      "ÏĦÎµ": 8513,
      "criptions": 8514,
      "plat": 8515,
      "ocket": 8516,
      "lia": 8517,
      "ĠNOT": 8518,
      "Ġidentity": 8519,
      "lÃ©": 8520,
      "Ġ108": 8521,
      "Ġdetermin": 8522,
      "Ġpossess": 8523,
      "Ġbesch": 8524,
      "Ġbeauti": 8525,
      "oming": 8526,
      "imet": 8527,
      "ĠSpr": 8528,
      "ĠÙĬ": 8529,
      "Ġstandards": 8530,
      "ouver": 8531,
      "Ġeverything": 8532,
      "wood": 8533,
      "Ġeurope": 8534,
      "Ġinsurance": 8535,
      "æĶ": 8536,
      "Char": 8537,
      "Ġsoil": 8538,
      "ĠAbs": 8539,
      "TY": 8540,
      "Ġattend": 8541,
      "ĠDavid": 8542,
      "Ġlivre": 8543,
      "ĠdÃ©part": 8544,
      "Fil": 8545,
      "Ġstrategy": 8546,
      "ptr": 8547,
      "Ġduty": 8548,
      "ĠGi": 8549,
      "essa": 8550,
      "RS": 8551,
      "Ġ79": 8552,
      "Ġà¤¹": 8553,
      "ĠÃ©conom": 8554,
      "Ġdelivery": 8555,
      "Ġchamber": 8556,
      "Í¤": 8557,
      "jÄħ": 8558,
      "Ġandere": 8559,
      "({": 8560,
      "core": 8561,
      "ĠHenry": 8562,
      "jt": 8563,
      "apping": 8564,
      "ornia": 8565,
      "ĠTod": 8566,
      "ĠSet": 8567,
      "ohl": 8568,
      "Ã±a": 8569,
      "Ġdamage": 8570,
      "Ġexpand": 8571,
      "Ġmission": 8572,
      "Ġreasonable": 8573,
      "Ġadopted": 8574,
      "Ġderived": 8575,
      "ĠScience": 8576,
      "×Ł": 8577,
      "ĠJus": 8578,
      "NO": 8579,
      "tats": 8580,
      "ĠAns": 8581,
      "reich": 8582,
      "reb": 8583,
      "Ġnearly": 8584,
      "Ġpersonnes": 8585,
      "à¦¨": 8586,
      "ĠSecret": 8587,
      "eper": 8588,
      "Ġrepresented": 8589,
      "status": 8590,
      "ĠCommun": 8591,
      "aph": 8592,
      "Ġeight": 8593,
      "ĠÎµÎ½": 8594,
      "ĠUne": 8595,
      "CK": 8596,
      "ĠdÃ©t": 8597,
      "chied": 8598,
      "Ġuint": 8599,
      "Ð¾Ð½Ð°": 8600,
      "cin": 8601,
      "entle": 8602,
      "just": 8603,
      "Ġrevenue": 8604,
      "Ġdepart": 8605,
      "Del": 8606,
      "Ġagree": 8607,
      "ĠCur": 8608,
      "Ġcharacters": 8609,
      "Ġunion": 8610,
      "Ġattach": 8611,
      "à½": 8612,
      "Ġhandle": 8613,
      "Ġnod": 8614,
      "encies": 8615,
      "×Ĵ": 8616,
      "Ġpages": 8617,
      "ÑĤÐµÐ»ÑĮ": 8618,
      "Ġminor": 8619,
      "Ġfigures": 8620,
      "ÃĦ": 8621,
      "anvier": 8622,
      "ĠJac": 8623,
      "Ġion": 8624,
      "ĠÐ¸Ð½": 8625,
      "%.": 8626,
      "first": 8627,
      "ilo": 8628,
      "ĠMark": 8629,
      "ea": 8630,
      "Ġparent": 8631,
      "Str": 8632,
      "Ġunless": 8633,
      "Ġhour": 8634,
      "Ġemployees": 8635,
      "ĠpÃ©ri": 8636,
      "PO": 8637,
      "Ġ89": 8638,
      "html": 8639,
      "Ġ1995": 8640,
      "Ġinteg": 8641,
      "agg": 8642,
      "placement": 8643,
      "Ġtypically": 8644,
      "ÙĪÙĦ": 8645,
      "å¯": 8646,
      "Ġpom": 8647,
      "neh": 8648,
      "Ġconstitu": 8649,
      "00000000": 8650,
      "Ġfrancs": 8651,
      "Ġnaj": 8652,
      "halten": 8653,
      "ivo": 8654,
      "Ã±o": 8655,
      "Cons": 8656,
      "Ġpharm": 8657,
      "ĠOffic": 8658,
      "Ġdok": 8659,
      "ĠMid": 8660,
      "eni": 8661,
      "edi": 8662,
      "arante": 8663,
      "Ġtesting": 8664,
      "Ġslow": 8665,
      "Ġgeneration": 8666,
      "DF": 8667,
      "ĠcrÃ©d": 8668,
      "vod": 8669,
      "Ġadministration": 8670,
      "Î¹ÎºÎ®": 8671,
      "Ġ115": 8672,
      "ĠBus": 8673,
      "ĠĠĠĠĠĠĠĠĠĠĠĠĠĠĠĠĠĠĠĠĠĠĠĠĠĠĠĠĠĠĠĠĠĠĠ": 8674,
      "edy": 8675,
      "Ġbinding": 8676,
      "ĠGeb": 8677,
      "kr": 8678,
      "Ġchain": 8679,
      "plan": 8680,
      "Ġlinear": 8681,
      "Ġintroduced": 8682,
      "Ġpoll": 8683,
      "Ġmonde": 8684,
      "éĻ": 8685,
      "imus": 8686,
      "ĠÅł": 8687,
      "Ġayant": 8688,
      "ĠAgreement": 8689,
      "ĠGal": 8690,
      "ribute": 8691,
      "amental": 8692,
      "Ġrelations": 8693,
      "ĠWeb": 8694,
      "ilarly": 8695,
      "Ú¯": 8696,
      "ÃĪ": 8697,
      "names": 8698,
      "Ġthin": 8699,
      "Ġalgorithm": 8700,
      "LC": 8701,
      "ĠDU": 8702,
      "Ġthreat": 8703,
      "Ġdisposed": 8704,
      "ĠBan": 8705,
      "Ä«b": 8706,
      "Status": 8707,
      "dam": 8708,
      "Ġdiscre": 8709,
      "fÃ¶r": 8710,
      "Ġremaining": 8711,
      ">(": 8712,
      "Ġwin": 8713,
      "Ġprzez": 8714,
      "Ã©rieure": 8715,
      "Ġevaluation": 8716,
      "Ġkw": 8717,
      "ĠÐ´Ðµ": 8718,
      "noÅĽci": 8719,
      "âĹ": 8720,
      "ĠspÃ©": 8721,
      "Ġcriteria": 8722,
      "ULT": 8723,
      "Ġenable": 8724,
      "Ð¿Ðµ": 8725,
      "Ġchanged": 8726,
      "Ġdead": 8727,
      "Ð¶Ðµ": 8728,
      "Ġeye": 8729,
      "ĠLim": 8730,
      "aron": 8731,
      "NS": 8732,
      "ĠzÃ¡": 8733,
      "isis": 8734,
      "ĠĠĠĠĠĠĠĠĠĠ": 8735,
      "à¬": 8736,
      "Ġvary": 8737,
      "Ġsheet": 8738,
      "anno": 8739,
      "jon": 8740,
      "Ġincreases": 8741,
      "gov": 8742,
      "Ġdoubt": 8743,
      "Ġktor": 8744,
      "Ġcher": 8745,
      "cb": 8746,
      "Ġtab": 8747,
      "Ã¨ge": 8748,
      "Ġ\"\"\"": 8749,
      "Ġarchitect": 8750,
      "ĠSar": 8751,
      "Ġfinding": 8752,
      "ively": 8753,
      "ĠNat": 8754,
      "Î¿ÏħÏĤ": 8755,
      "Ġinterval": 8756,
      "nelle": 8757,
      "Ġdied": 8758,
      "çī": 8759,
      "×Ŀ": 8760,
      "rastruct": 8761,
      "Ġgather": 8762,
      "Ġradio": 8763,
      "iva": 8764,
      "Ġcycle": 8765,
      "Ġregulations": 8766,
      "isa": 8767,
      "Ġproteins": 8768,
      "pons": 8769,
      "appro": 8770,
      "ague": 8771,
      "Ġimmediately": 8772,
      "Ġagricult": 8773,
      "ĠService": 8774,
      "Ġattack": 8775,
      "die": 8776,
      "ITE": 8777,
      "spect": 8778,
      "Ġdonner": 8779,
      "kes": 8780,
      "node": 8781,
      "Ġconsideration": 8782,
      "Ġattached": 8783,
      "Ġnorth": 8784,
      "Å¾i": 8785,
      "2005": 8786,
      "ĠÐ²Ð¸": 8787,
      "ĠProv": 8788,
      "ELL": 8789,
      "arp": 8790,
      "Ġtwenty": 8791,
      "Ġville": 8792,
      "eros": 8793,
      "ĠPap": 8794,
      "Ġinclus": 8795,
      "Input": 8796,
      "rine": 8797,
      "Ġallowing": 8798,
      "ĠÎ¼ÎŃ": 8799,
      "Ġprofessional": 8800,
      "ĠFlor": 8801,
      "eno": 8802,
      "ĠÎĳ": 8803,
      "Ġdeveloping": 8804,
      "zÃ¡": 8805,
      "rote": 8806,
      "Ġroute": 8807,
      "ÑĤÐ¾ÑĢ": 8808,
      "Ġassociation": 8809,
      "åĩ": 8810,
      "antum": 8811,
      "Ġgan": 8812,
      "know": 8813,
      "Ġdanger": 8814,
      "Ġfourth": 8815,
      "Ġbasic": 8816,
      "Ġning": 8817,
      "Ġcontro": 8818,
      "ĠCond": 8819,
      "ĠÎł": 8820,
      "Ġnetworks": 8821,
      "ĠJust": 8822,
      "Ġinstruments": 8823,
      "ä»¥": 8824,
      "Ġdetermination": 8825,
      "rr": 8826,
      "json": 8827,
      "Ġfelt": 8828,
      "Ġ×¢": 8829,
      "ĠFour": 8830,
      "ĠSuper": 8831,
      "Ġcela": 8832,
      "Ext": 8833,
      "Ġcommerce": 8834,
      "Ġtrait": 8835,
      "ÑĤÐµÐ»": 8836,
      "zk": 8837,
      "autor": 8838,
      "Å¾e": 8839,
      "ÏĥÎµÎ¹ÏĤ": 8840,
      "ĠÐĽ": 8841,
      "Ġnella": 8842,
      "Je": 8843,
      "nych": 8844,
      "specific": 8845,
      "Color": 8846,
      "Ġreasons": 8847,
      "Ġfich": 8848,
      "Ġmillions": 8849,
      "Ġfacts": 8850,
      "content": 8851,
      "ammen": 8852,
      "Ġdesc": 8853,
      "Ġserved": 8854,
      "Ãĺ": 8855,
      "ĠAG": 8856,
      "à¤¹": 8857,
      "Ġcompounds": 8858,
      "ĠÅĵ": 8859,
      "Property": 8860,
      "è¨": 8861,
      ".*": 8862,
      "ìĿĺ": 8863,
      "Îł": 8864,
      "ĠÅ¾e": 8865,
      "ĠIndia": 8866,
      "Ġwild": 8867,
      "ieur": 8868,
      "rance": 8869,
      "UG": 8870,
      "Ġstan": 8871,
      "Ġoperator": 8872,
      "etes": 8873,
      "Ġ105": 8874,
      "ĠPark": 8875,
      "ĠOpen": 8876,
      "Ġinteraction": 8877,
      "tsch": 8878,
      "Ġorganic": 8879,
      "rique": 8880,
      "veness": 8881,
      "Ġfiles": 8882,
      "Ġcoordin": 8883,
      "ĠGreat": 8884,
      "zes": 8885,
      "image": 8886,
      "Ġrecommend": 8887,
      "Ġoffers": 8888,
      "ÑĨÐ°": 8889,
      "ĠCer": 8890,
      "Ġgranted": 8891,
      "geben": 8892,
      "ieb": 8893,
      "ulty": 8894,
      "dan": 8895,
      "vari": 8896,
      "iko": 8897,
      "nl": 8898,
      "Image": 8899,
      "à¤Ĺ": 8900,
      "Ġscore": 8901,
      "ĠÏĦÎ·": 8902,
      "request": 8903,
      "Ġ(*": 8904,
      "Ã¥n": 8905,
      "ĠÐ¼Ð°": 8906,
      "ĠLife": 8907,
      "Ġwordt": 8908,
      "Ġtests": 8909,
      "unch": 8910,
      "Ġconcerns": 8911,
      "Ġcollected": 8912,
      "ĠlÃ¤": 8913,
      "Ġmonitoring": 8914,
      "ĠYour": 8915,
      "Ġdriving": 8916,
      "emplate": 8917,
      "Ġsecondary": 8918,
      "à¸Ń": 8919,
      "ĠÐ¾Ñģ": 8920,
      "Ġauthorities": 8921,
      "dist": 8922,
      "aben": 8923,
      "Ġinstitution": 8924,
      "ĠdonnÃ©es": 8925,
      "è¦": 8926,
      "Ġartic": 8927,
      "Ġrent": 8928,
      "Fin": 8929,
      "Ġreporting": 8930,
      "Ġrelatively": 8931,
      "ĠTerm": 8932,
      "impro": 8933,
      "ĠDistrict": 8934,
      "Äĥri": 8935,
      "iler": 8936,
      "source": 8937,
      "Ġ×Ľ": 8938,
      "Ġgam": 8939,
      "Ġjew": 8940,
      "uo": 8941,
      "Ġforme": 8942,
      "Ġholding": 8943,
      "kst": 8944,
      "Ã¨mes": 8945,
      "aje": 8946,
      "Ġpiece": 8947,
      "wend": 8948,
      "Ġsoul": 8949,
      "ĠManagement": 8950,
      "Ġsecure": 8951,
      "ĠÐ»Ð¸": 8952,
      "Ġmajority": 8953,
      "aren": 8954,
      "ĠÎµÏĢÎ¹": 8955,
      "Ġnationale": 8956,
      "ÑĤÑĭ": 8957,
      "2000": 8958,
      "When": 8959,
      "Ġpare": 8960,
      "left": 8961,
      "Ġcyl": 8962,
      "Ġdetected": 8963,
      "Ġagreed": 8964,
      "Si": 8965,
      "ĠNord": 8966,
      "miss": 8967,
      "wy": 8968,
      "ifik": 8969,
      "heim": 8970,
      "Ġparticles": 8971,
      "Ġthy": 8972,
      "ĠtÃ¤": 8973,
      "Ġappeal": 8974,
      "ĠMex": 8975,
      "ĠRobert": 8976,
      "å¼": 8977,
      "Ġmilitary": 8978,
      "Ġprofit": 8979,
      "nam": 8980,
      "Ġdeze": 8981,
      "Ġelectrical": 8982,
      "ugg": 8983,
      "Ġready": 8984,
      "Ġcharges": 8985,
      "âĢ¢âĢ¢": 8986,
      "MI": 8987,
      "Ġinterven": 8988,
      "Ġtherapy": 8989,
      "ĠÑĩÑĤÐ¾": 8990,
      "ĠPri": 8991,
      "ĠOs": 8992,
      "Call": 8993,
      "ĠSecurities": 8994,
      "ureau": 8995,
      "ĠCanada": 8996,
      ".[": 8997,
      "Ð°Ð½Ð¸Ñı": 8998,
      "Ã§on": 8999,
      "tiam": 9000,
      "Ġhighest": 9001,
      "Ġunderlying": 9002,
      "house": 9003,
      "Ġdescribe": 9004,
      "ĠAB": 9005,
      "hÃ¶r": 9006,
      "Ġsuc": 9007,
      "RES": 9008,
      "Ġdecrease": 9009,
      "Bo": 9010,
      "tify": 9011,
      "alle": 9012,
      "Ġcomparison": 9013,
      "Ġmesure": 9014,
      "ĠPet": 9015,
      "application": 9016,
      "Ġopportunity": 9017,
      "ĠInf": 9018,
      "Ã§a": 9019,
      "Ġtechnologies": 9020,
      "std": 9021,
      "loss": 9022,
      "olf": 9023,
      "ÏĮÏĤ": 9024,
      "istes": 9025,
      "Ġhighlight": 9026,
      "Ġimplemented": 9027,
      "Ġvra": 9028,
      "Ġili": 9029,
      "pun": 9030,
      "Ġsynth": 9031,
      "cious": 9032,
      "ĠBay": 9033,
      "Æ°": 9034,
      "Ġcovered": 9035,
      "Ġperf": 9036,
      "riage": 9037,
      "Ġtruth": 9038,
      "ucht": 9039,
      "Ġfilled": 9040,
      "ĠLeb": 9041,
      "ped": 9042,
      "Ġdispositions": 9043,
      "orter": 9044,
      "Ġmoving": 9045,
      "Ġveget": 9046,
      "ograf": 9047,
      "Ġ),": 9048,
      "Ã¥r": 9049,
      "You": 9050,
      "æ°": 9051,
      "Ġiv": 9052,
      "Ne": 9053,
      "ÑģÑĤÐ°Ð²": 9054,
      "Ġinteresting": 9055,
      "Ġdecisions": 9056,
      "Ġjourney": 9057,
      "Ġdepth": 9058,
      "Ġfuel": 9059,
      "will": 9060,
      "Ġjurisd": 9061,
      "Ġpreced": 9062,
      "ĠArtikel": 9063,
      "ĠEsp": 9064,
      "ĠGreen": 9065,
      "ãĥ¼ãĥ": 9066,
      "ĠÂµ": 9067,
      "ĠSund": 9068,
      "Ġfasc": 9069,
      "Ġancient": 9070,
      "inÃ©": 9071,
      "Ġrecognized": 9072,
      "ĠHall": 9073,
      "********************************": 9074,
      "æľī": 9075,
      "Client": 9076,
      "Ġsemiconductor": 9077,
      "ÏĦÎ¹": 9078,
      "aug": 9079,
      "package": 9080,
      "Ġhoc": 9081,
      "Ġconse": 9082,
      "KS": 9083,
      "Ġbuffer": 9084,
      "ĠJahr": 9085,
      "nb": 9086,
      "onnement": 9087,
      "ako": 9088,
      "ĠProt": 9089,
      "Ġconfirm": 9090,
      "Ġbat": 9091,
      "ĠdÃ©jÃł": 9092,
      "Ã©re": 9093,
      "iera": 9094,
      "ĠTwo": 9095,
      "Ġframework": 9096,
      "Ġdeleg": 9097,
      "Ġsuperior": 9098,
      "ordning": 9099,
      "ĠFund": 9100,
      "Ġsecurities": 9101,
      "Ġclimate": 9102,
      "Ġutiliz": 9103,
      "roz": 9104,
      "ogene": 9105,
      "Ġarranged": 9106,
      "Tit": 9107,
      "ĠAny": 9108,
      "Ã©se": 9109,
      "ÑģÑĤÐ²Ð°": 9110,
      "rank": 9111,
      "Ġdistingu": 9112,
      "Ð¾Ð¼Ð¸": 9113,
      "Ãªts": 9114,
      "ĠEqu": 9115,
      "rative": 9116,
      "ĠÐ£": 9117,
      "Ġturned": 9118,
      "ĠCalifornia": 9119,
      "ĠLog": 9120,
      "Ġcadre": 9121,
      "Ġorganization": 9122,
      "osc": 9123,
      "ainer": 9124,
      "Ġbirth": 9125,
      "itizens": 9126,
      "à´¿": 9127,
      "ĠJo": 9128,
      "ĠGrand": 9129,
      "Ġunderstood": 9130,
      "Î»Î±": 9131,
      "ÐĽ": 9132,
      "Ġmotiv": 9133,
      "ĠPers": 9134,
      "ĠÃ©p": 9135,
      "2003": 9136,
      "orders": 9137,
      "antÃ©": 9138,
      "Ġprogramme": 9139,
      "fit": 9140,
      "ivent": 9141,
      "uccess": 9142,
      "Ġsat": 9143,
      "etzt": 9144,
      "ÏĮÏĦÎ·": 9145,
      "Ġenv": 9146,
      "ĠMicro": 9147,
      "Ġcontained": 9148,
      "Ġsubsequent": 9149,
      "gÃ©": 9150,
      "ĠUnivers": 9151,
      "ĠWhite": 9152,
      "Ġserious": 9153,
      "stein": 9154,
      "utilisation": 9155,
      "Comp": 9156,
      "eri": 9157,
      "lat": 9158,
      "Ġconstitution": 9159,
      "annels": 9160,
      "Ġevening": 9161,
      "éĸ": 9162,
      "main": 9163,
      "Ð»Ñİ": 9164,
      "olt": 9165,
      "late": 9166,
      "ĠØ¬": 9167,
      "AIR": 9168,
      "lease": 9169,
      "Ġgiving": 9170,
      "ĠKom": 9171,
      "fix": 9172,
      "ĠOffice": 9173,
      "ĠSH": 9174,
      "true": 9175,
      "Ġmiddle": 9176,
      "ieg": 9177,
      "Ġ1994": 9178,
      "ĠSupp": 9179,
      "Ġcomputing": 9180,
      "Ġ116": 9181,
      "ĠMS": 9182,
      "Ġroot": 9183,
      "Ġcustomer": 9184,
      "Min": 9185,
      "Ġdiseases": 9186,
      "inform": 9187,
      "mis": 9188,
      "Ġskin": 9189,
      "Ġfais": 9190,
      "Stre": 9191,
      "Ġbou": 9192,
      "Ġselect": 9193,
      "ĠRiver": 9194,
      "ĠsystÃ¨me": 9195,
      "tras": 9196,
      "irs": 9197,
      "Ġschools": 9198,
      "abile": 9199,
      "rome": 9200,
      "!!": 9201,
      "Ġclasses": 9202,
      "iling": 9203,
      "Ġupdate": 9204,
      "Ġperspective": 9205,
      "Ġinsert": 9206,
      "Ġtransaction": 9207,
      "Ġconsistent": 9208,
      "tip": 9209,
      "Ġ180": 9210,
      "beg": 9211,
      "radi": 9212,
      "ichte": 9213,
      "Ġkg": 9214,
      "102": 9215,
      "ĠPerson": 9216,
      "CB": 9217,
      "Ġyourself": 9218,
      "reff": 9219,
      "ancement": 9220,
      "Ġtube": 9221,
      "Ġfailed": 9222,
      "ifying": 9223,
      "essor": 9224,
      "irmed": 9225,
      "Ġtt": 9226,
      "Ġ\"\\": 9227,
      "Ġmesures": 9228,
      "Manager": 9229,
      "ĠElect": 9230,
      "ql": 9231,
      "ĠPy": 9232,
      "ĠMax": 9233,
      "AST": 9234,
      "ĠMme": 9235,
      "Ġpresente": 9236,
      "Ġsafe": 9237,
      "Ġtrig": 9238,
      "cribed": 9239,
      "Ð¶Ð¸": 9240,
      "iri": 9241,
      "Ġbacter": 9242,
      "Ġsections": 9243,
      "Ġborn": 9244,
      "ellect": 9245,
      "Ġpin": 9246,
      "zing": 9247,
      "ÎµÏĦÎ±Î¹": 9248,
      "System": 9249,
      "ĠPubMed": 9250,
      "Ġpartir": 9251,
      "Ġcompleted": 9252,
      "ĠRoman": 9253,
      "âĢĥ": 9254,
      "timm": 9255,
      "ĠCP": 9256,
      "Ġexploring": 9257,
      "ĠÎļ": 9258,
      "ĠDev": 9259,
      "actor": 9260,
      "Mr": 9261,
      "ÈĽii": 9262,
      "Ġ140": 9263,
      "Ġreached": 9264,
      "win": 9265,
      "Ġmars": 9266,
      "mg": 9267,
      "inity": 9268,
      "args": 9269,
      "Ġriver": 9270,
      "alitÃ©": 9271,
      "stud": 9272,
      "liament": 9273,
      "Ġpromote": 9274,
      "à°Ĥ": 9275,
      "Ġimper": 9276,
      "Ġihn": 9277,
      "\"),": 9278,
      "ÑĥÑĢ": 9279,
      "icher": 9280,
      "Ġwarm": 9281,
      "bed": 9282,
      "Ġuniform": 9283,
      "Ġideas": 9284,
      "rik": 9285,
      "ponents": 9286,
      "ĠsÄħ": 9287,
      "'-": 9288,
      "Ġperhaps": 9289,
      "issa": 9290,
      "zjon": 9291,
      "Ġmog": 9292,
      "acji": 9293,
      "è¿": 9294,
      "ĠDigitized": 9295,
      "ergy": 9296,
      "Ġconcernant": 9297,
      "Ġlicense": 9298,
      "ĠBra": 9299,
      "Ġachieve": 9300,
      "(&": 9301,
      "Ãļ": 9302,
      "ettes": 9303,
      "Ġhelps": 9304,
      "Ã¤d": 9305,
      "ÐµÐ·": 9306,
      "Ġobten": 9307,
      "Ġeing": 9308,
      "Ġhyper": 9309,
      "Ġapproaches": 9310,
      "ĠVi": 9311,
      "Ġmale": 9312,
      "ensor": 9313,
      "Ġpeti": 9314,
      "icos": 9315,
      "ĠfÃ¶": 9316,
      "priv": 9317,
      "esso": 9318,
      "Ġinteractions": 9319,
      "Ġsimpl": 9320,
      "Ã®t": 9321,
      "ĠdÃ©cembre": 9322,
      "Ġihre": 9323,
      "Ġenviron": 9324,
      "auteur": 9325,
      "ĠTime": 9326,
      "ĠFort": 9327,
      "Ġbeautiful": 9328,
      "Ġcapit": 9329,
      "Ġpros": 9330,
      "Ġraised": 9331,
      "icia": 9332,
      "ĠÎ´Î¹": 9333,
      "ibly": 9334,
      ">.": 9335,
      "Ġmarked": 9336,
      "Ġvue": 9337,
      "Ġvoc": 9338,
      "Ġcultiv": 9339,
      "Ġagus": 9340,
      "Ġoffered": 9341,
      "dess": 9342,
      "ĠUSA": 9343,
      "fam": 9344,
      "server": 9345,
      "Ġreligious": 9346,
      "Ġreti": 9347,
      "regist": 9348,
      "Ġmoved": 9349,
      "Ġinvolves": 9350,
      "tout": 9351,
      "æ³": 9352,
      "ĠGermany": 9353,
      "ication": 9354,
      "Ġole": 9355,
      "pha": 9356,
      "ether": 9357,
      "Ġpouvoir": 9358,
      "obe": 9359,
      "ingly": 9360,
      "Ġatm": 9361,
      "Ð³ÑĢÐ°": 9362,
      "Ġoccasion": 9363,
      "ÑĬÐ»": 9364,
      "................................................................": 9365,
      "Ġgrowing": 9366,
      "ĠGold": 9367,
      "Ġbeam": 9368,
      "Ġgetting": 9369,
      "âĤĥ": 9370,
      "older": 9371,
      "Ġtumor": 9372,
      "Ġkap": 9373,
      "ĠDom": 9374,
      "Ġsurrounding": 9375,
      "Ġvoice": 9376,
      "ĠJes": 9377,
      "asts": 9378,
      "Ġí": 9379,
      "check": 9380,
      "Ã©cur": 9381,
      "Ġinsights": 9382,
      "anza": 9383,
      "Ġwitness": 9384,
      "aste": 9385,
      "ĠBlack": 9386,
      "AK": 9387,
      "Ġlip": 9388,
      "inÄģ": 9389,
      "ĠSocial": 9390,
      "Ġprotected": 9391,
      "Ġautomatic": 9392,
      "tively": 9393,
      "aprÃ¨s": 9394,
      "Ġcommittee": 9395,
      "ichts": 9396,
      "Ġearlier": 9397,
      "Ġrub": 9398,
      "quÃ©": 9399,
      "Ġcorps": 9400,
      "Ġlearned": 9401,
      "Ġcold": 9402,
      "aid": 9403,
      "Ġcaso": 9404,
      "ĠMAR": 9405,
      "Ġpel": 9406,
      "Ġconclus": 9407,
      "CN": 9408,
      "Ġtravaux": 9409,
      "ĠbÅ«": 9410,
      "rows": 9411,
      "Ġfuer": 9412,
      "Conn": 9413,
      "lation": 9414,
      "Ġjou": 9415,
      "Ġchief": 9416,
      "Ã¶t": 9417,
      "Ġsouth": 9418,
      "Ġparagraphe": 9419,
      "lung": 9420,
      "Ġstarting": 9421,
      "lock": 9422,
      "itors": 9423,
      "^.": 9424,
      "Ġpai": 9425,
      "uÃ©": 9426,
      "antages": 9427,
      "Ġfresh": 9428,
      "low": 9429,
      "Ġ1000": 9430,
      "Ġprison": 9431,
      "ticas": 9432,
      "ienne": 9433,
      "ÑĪÐ°": 9434,
      "Ġregulatory": 9435,
      "otte": 9436,
      "asser": 9437,
      "vements": 9438,
      "Spec": 9439,
      "erman": 9440,
      "iciÃ³n": 9441,
      "Ġcloth": 9442,
      "Ġook": 9443,
      "ĠSon": 9444,
      "uÃŁ": 9445,
      "Ġdiscr": 9446,
      "Ġchallenge": 9447,
      "Che": 9448,
      "mun": 9449,
      "Ġconnections": 9450,
      "Ġwireless": 9451,
      "Ġneuro": 9452,
      "ÏģÎ·": 9453,
      "icago": 9454,
      "ĠâĢ¦": 9455,
      "wide": 9456,
      "Ġfederal": 9457,
      "Ġnews": 9458,
      "Ġregional": 9459,
      "Ġrow": 9460,
      "arum": 9461,
      "sche": 9462,
      "ĠColl": 9463,
      "ÅĦst": 9464,
      "default": 9465,
      "usi": 9466,
      "à¹Ģ": 9467,
      "BN": 9468,
      "Ġpersonnel": 9469,
      "ĠHor": 9470,
      "Ġ600": 9471,
      "Ġfunds": 9472,
      "frame": 9473,
      "Ġpoz": 9474,
      "md": 9475,
      "Ġkept": 9476,
      "Ðĳ": 9477,
      "xc": 9478,
      "Ġuncertain": 9479,
      "??": 9480,
      "ierung": 9481,
      "product": 9482,
      "auer": 9483,
      "Ġcontrols": 9484,
      "ĠÐºÐ¾Ð½": 9485,
      "Ãĵ": 9486,
      "ikk": 9487,
      "Ġobservations": 9488,
      "IK": 9489,
      "kti": 9490,
      "FOR": 9491,
[...]
